<unk>	0
<s>	0
</s>	0
.	-3.15174
s	-3.47564
,	-3.61257
▁the	-3.6829
'	-3.94511
▁to	-4.0377
▁a	-4.03933
▁I	-4.13942
▁of	-4.34107
▁and	-4.39851
t	-4.46606
▁that	-4.55247
▁is	-4.58651
▁it	-4.60569
▁you	-4.6488
▁in	-4.73607
▁	-5.09064
?	-5.13692
▁for	-5.13701
ing	-5.17312
▁[	-5.30604
▁be	-5.32591
-	-5.34098
▁are	-5.43592
d	-5.43699
ed	-5.4464
▁have	-5.44833
/	-5.45097
▁not	-5.45287
]	-5.48753
▁on	-5.48897
▁with	-5.51718
deleted	-5.53845
▁"	-5.57079
m	-5.63231
▁was	-5.63645
▁they	-5.67106
▁this	-5.67476
▁but	-5.74254
;	-5.74625
▁as	-5.84142
re	-5.85501
▁can	-5.88399
"	-5.90281
▁or	-5.90718
▁my	-5.93375
▁like	-5.93535
▁(	-5.94287
)	-5.97251
▁just	-5.99681
▁your	-5.99832
...	-6.00653
▁about	-6.05979
▁The	-6.06524
▁people	-6.06669
▁do	-6.06723
▁an	-6.07713
▁would	-6.08671
ly	-6.09244
▁all	-6.09524
▁so	-6.09677
▁he	-6.10863
▁me	-6.11006
▁if	-6.13008
▁what	-6.14456
!	-6.14816
e	-6.15781
▁&	-6.16839
gt	-6.17551
▁don	-6.17763
y	-6.18524
▁at	-6.19582
▁we	-6.23193
:	-6.23815
▁It	-6.23967
▁one	-6.25145
▁from	-6.26029
▁out	-6.30905
▁think	-6.31509
▁there	-6.32098
▁up	-6.32496
▁more	-6.32738
_	-6.36751
er	-6.37228
▁get	-6.39436
▁who	-6.39515
▁by	-6.4011
▁no	-6.41125
▁will	-6.42239
r	-6.42364
▁their	-6.44326
://	-6.45868
▁*	-6.48004
▁has	-6.51038
▁You	-6.51534
ve	-6.51723
▁them	-6.53773
▁some	-6.55135
▁because	-6.57068
▁know	-6.58945
▁when	-6.59226
com	-6.64046
*	-6.65466
▁A	-6.67301
▁than	-6.67491
▁time	-6.67872
a	-6.71309
▁If	-6.72135
n	-6.7247
in	-6.74981
▁his	-6.75422
al	-6.7609
▁really	-6.76778
▁other	-6.76816
ll	-6.77935
▁how	-6.79022
▁only	-6.79453
▁That	-6.79616
▁i	-6.81375
▁-	-6.81762
c	-6.83466
▁then	-6.84387
▁any	-6.84652
▁make	-6.84811
▁had	-6.8561
▁good	-6.87351
▁much	-6.88278
p	-6.88716
I	-6.89228
▁were	-6.90934
▁been	-6.91261
▁way	-6.91915
or	-6.92234
▁even	-6.92482
▁see	-6.93282
i	-6.93488
http	-6.94065
▁go	-6.9442
▁C	-6.95821
▁should	-6.96419
](	-6.97208
▁And	-6.97557
▁being	-6.99029
▁say	-7.00501
S	-7.00729
h	-7.0169
▁want	-7.02159
▁which	-7.02406
▁could	-7.02768
▁S	-7.03434
▁over	-7.03565
es	-7.04546
www	-7.05779
▁right	-7.0703
▁something	-7.08311
o	-7.08324
▁into	-7.089
▁too	-7.10091
▁This	-7.1327
▁she	-7.14409
en	-7.15235
▁her	-7.16674
▁now	-7.17096
▁going	-7.17444
▁So	-7.19019
A	-7.1924
▁point	-7.19384
▁use	-7.20717
▁But	-7.20971
▁thing	-7.22416
▁doesn	-7.23512
g	-7.23635
C	-7.24135
l	-7.24417
▁They	-7.24922
▁him	-7.24937
▁most	-7.24981
▁need	-7.25365
▁those	-7.25435
v	-7.26505
▁He	-7.26526
f	-7.26649
▁why	-7.27202
▁still	-7.27713
▁work	-7.28186
▁did	-7.2845
▁same	-7.29499
b	-7.30135
▁very	-7.30433
▁well	-7.31251
).	-7.32475
▁here	-7.32697
▁does	-7.32716
▁What	-7.33116
=	-7.3426
▁back	-7.34718
▁un	-7.34917
▁where	-7.35171
▁our	-7.35265
▁said	-7.35345
u	-7.35649
▁also	-7.37174
it	-7.37728
▁things	-7.38788
▁F	-7.39162
▁didn	-7.40704
D	-7.40725
▁believe	-7.40912
▁actually	-7.40994
▁off	-7.41384
▁down	-7.4169
le	-7.41717
▁http	-7.42032
▁In	-7.42529
▁better	-7.4262
▁many	-7.43239
ation	-7.43995
▁never	-7.44315
▁someone	-7.44685
P	-7.46673
able	-7.47685
&	-7.48425
▁re	-7.49148
▁There	-7.4918
▁No	-7.49239
▁lot	-7.49438
an	-7.49698
▁'	-7.50093
▁these	-7.50982
▁years	-7.51311
▁us	-7.51545
▁am	-7.51827
▁take	-7.5206
▁got	-7.52999
▁mean	-7.5359
amp	-7.54859
T	-7.55286
▁first	-7.55855
th	-7.56115
E	-7.56441
ers	-7.56525
▁We	-7.57514
▁world	-7.58499
M	-7.5874
▁sure	-7.59382
▁money	-7.59687
ar	-7.61251
▁own	-7.61528
▁thought	-7.61589
▁bad	-7.61789
w	-7.62546
▁T	-7.62562
ic	-7.62617
k	-7.62922
B	-7.6333
▁new	-7.63675
▁pretty	-7.64291
▁isn	-7.6431
▁B	-7.65017
▁anything	-7.65323
▁find	-7.65652
▁before	-7.66361
O	-7.67343
▁guy	-7.67803
ro	-7.68132
ion	-7.68881
ri	-7.69032
▁though	-7.6908
▁P	-7.69558
▁every	-7.69814
ment	-7.7034
▁after	-7.70491
org	-7.71082
on	-7.71693
▁day	-7.72341
and	-7.72578
▁read	-7.72698
▁two	-7.72946
."	-7.73231
▁look	-7.73413
▁E	-7.7346
▁made	-7.73953
▁man	-7.74298
▁long	-7.74346
▁few	-7.74781
▁while	-7.7497
L	-7.75737
▁used	-7.75786
ity	-7.76049
▁b	-7.76453
▁person	-7.76536
▁little	-7.76784
▁enough	-7.77066
▁life	-7.77098
▁government	-7.77218
▁might	-7.77794
F	-7.7823
▁probably	-7.78536
▁wrong	-7.78538
us	-7.78962
▁problem	-7.79335
x	-7.79873
▁around	-7.80382
▁always	-7.8106
▁such	-7.81672
▁love	-7.82238
the	-7.82249
▁may	-7.82453
▁feel	-7.82638
2	-7.8284
▁give	-7.82861
3	-7.83425
▁ever	-7.83831
▁part	-7.83869
▁come	-7.84121
▁reddit	-7.84139
▁shit	-7.84791
▁de	-7.85146
▁year	-7.85384
R	-7.85753
N	-7.85871
▁without	-7.86009
▁My	-7.8629
▁idea	-7.86447
is	-7.87345
▁real	-7.87502
ur	-7.87963
▁put	-7.88078
ist	-7.88791
il	-7.89153
▁fact	-7.89795
▁reason	-7.90392
G	-7.90629
el	-7.90673
less	-7.90891
id	-7.9132
se	-7.91344
▁keep	-7.91403
▁since	-7.9156
▁doing	-7.91613
▁nothing	-7.91755
▁end	-7.9182
H	-7.92199
▁G	-7.92364
▁kind	-7.92443
**	-7.93404
▁least	-7.93758
▁W	-7.93988
▁As	-7.9401
la	-7.94096
z	-7.9482
ive	-7.949
▁another	-7.94998
▁agree	-7.95101
▁tell	-7.95628
▁free	-7.96111
▁D	-7.96289
at	-7.96786
▁else	-7.96894
▁different	-7.97032
▁trying	-7.97047
▁How	-7.97612
▁system	-7.98153
▁against	-7.98725
▁through	-7.98857
▁old	-7.98889
".	-7.99137
▁far	-7.99247
un	-7.99345
▁2	-7.9946
▁great	-8.00499
▁makes	-8.01034
▁religion	-8.01151
est	-8.01342
▁less	-8.01724
1	-8.01826
▁best	-8.02194
▁3	-8.02219
de	-8.02247
▁using	-8.02544
▁let	-8.02702
ra	-8.02773
▁post	-8.02783
li	-8.03523
▁Not	-8.03577
to	-8.03674
ter	-8.03939
▁case	-8.04672
ent	-8.04878
▁anyone	-8.05041
▁For	-8.05249
▁everyone	-8.05414
▁bit	-8.05429
▁US	-8.05528
▁saying	-8.0583
as	-8.05959
ch	-8.06076
▁Well	-8.06185
▁last	-8.06195
ism	-8.06438
▁Why	-8.07366
),	-8.07414
▁try	-8.07433
▁change	-8.07442
ol	-8.08591
▁fuck	-8.09028
▁both	-8.09241
▁name	-8.09539
▁Obama	-8.09927
▁article	-8.10174
▁N	-8.10252
▁Just	-8.10936
ies	-8.11237
▁hard	-8.11952
▁understand	-8.12002
▁fucking	-8.12109
▁comment	-8.12375
▁getting	-8.13342
8	-8.13407
▁making	-8.13808
▁help	-8.13954
▁live	-8.14153
▁under	-8.14282
▁car	-8.14337
▁question	-8.1436
▁power	-8.1468
ce	-8.14934
▁1	-8.15134
▁God	-8.15164
▁having	-8.15283
▁**	-8.15359
U	-8.15614
4	-8.15694
▁won	-8.15749
▁done	-8.16155
▁already	-8.16351
▁wouldn	-8.16529
▁away	-8.16566
▁call	-8.16695
▁start	-8.18552
▁big	-8.18829
▁seems	-8.19026
man	-8.19176
▁between	-8.19627
▁Do	-8.19759
▁again	-8.19814
▁Oh	-8.20326
co	-8.20368
▁place	-8.20457
▁stop	-8.21207
W	-8.21217
▁When	-8.2145
▁...	-8.21992
▁pay	-8.21999
▁must	-8.22379
▁4	-8.22525
▁mind	-8.22558
▁Yes	-8.22621
▁means	-8.22716
wiki	-8.22793
▁course	-8.23748
ad	-8.24012
▁H	-8.2429
▁V	-8.248
▁whole	-8.25027
im	-8.25172
▁buy	-8.25239
▁game	-8.25414
ate	-8.25685
▁run	-8.25866
▁Or	-8.25972
▁etc	-8.26086
▁state	-8.26414
▁either	-8.26522
▁L	-8.26681
ge	-8.26763
▁head	-8.27369
ir	-8.28138
▁support	-8.2863
▁rather	-8.28683
▁true	-8.29057
ia	-8.29425
▁Yeah	-8.29439
lt	-8.29635
▁god	-8.2986
▁--	-8.29937
▁guess	-8.30074
no	-8.30348
K	-8.30362
▁home	-8.30705
em	-8.31346
ta	-8.31727
▁nice	-8.31908
▁stuff	-8.32431
▁job	-8.32436
▁talking	-8.33013
up	-8.33232
▁high	-8.33271
▁show	-8.33317
▁sense	-8.33408
pe	-8.33486
▁quite	-8.33688
▁stupid	-8.34389
▁example	-8.34473
▁law	-8.34925
um	-8.35464
▁Also	-8.35501
▁yet	-8.35735
▁country	-8.35737
▁code	-8.36446
▁st	-8.36526
▁word	-8.37035
▁wasn	-8.37045
ul	-8.37138
ne	-8.37186
▁market	-8.37588
ie	-8.38224
▁everything	-8.38374
▁care	-8.38408
▁M	-8.38493
▁10	-8.38722
▁hate	-8.38797
▁play	-8.38932
▁gay	-8.39031
▁maybe	-8.39255
▁next	-8.39447
▁instead	-8.39718
▁To	-8.39889
▁war	-8.39909
wikipedia	-8.39911
▁U	-8.39972
▁story	-8.40646
▁non	-8.40765
▁ago	-8.41011
ting	-8.41063
et	-8.41141
0	-8.41148
▁e	-8.41231
▁side	-8.41357
▁seem	-8.4142
op	-8.41518
▁c	-8.41754
Y	-8.41755
▁police	-8.42191
▁number	-8.4221
▁until	-8.426
▁hand	-8.42604
▁dis	-8.42734
▁matter	-8.42773
▁found	-8.42795
▁religious	-8.42801
▁video	-8.42892
▁once	-8.43011
ine	-8.43364
age	-8.43578
ous	-8.43598
▁seen	-8.43608
ant	-8.43724
reddit	-8.43813
▁Bush	-8.43906
▁simply	-8.44157
▁co	-8.4435
am	-8.44353
ble	-8.4454
▁aren	-8.44568
▁Don	-8.44762
ap	-8.45564
The	-8.45988
▁5	-8.46503
▁human	-8.46933
6	-8.46983
V	-8.47005
▁yourself	-8.47064
ma	-8.4707
▁R	-8.47527
▁She	-8.47811
▁belief	-8.47889
▁sex	-8.48919
▁Now	-8.49971
▁link	-8.50902
ance	-8.50919
▁hope	-8.50941
▁myself	-8.51241
me	-8.51402
lo	-8.51505
▁looking	-8.51523
html	-8.51535
▁con	-8.51661
▁g	-8.51778
be	-8.51795
▁language	-8.52163
▁O	-8.52406
▁called	-8.5243
▁open	-8.52483
▁argument	-8.52775
te	-8.52812
▁each	-8.53144
▁Maybe	-8.53701
▁days	-8.54025
++	-8.5434
▁times	-8.54403
▁p	-8.5466
▁Then	-8.54785
▁remember	-8.54934
om	-8.55085
7	-8.55094
▁left	-8.55568
▁difference	-8.55576
ness	-8.56045
▁f	-8.56244
▁almost	-8.56844
5	-8.56845
▁answer	-8.56863
▁thinking	-8.57378
▁sp	-8.57505
▁issue	-8.57723
▁themselves	-8.57815
▁sort	-8.58244
▁turn	-8.58491
do	-8.585
▁women	-8.58854
▁house	-8.58897
▁often	-8.60591
▁heard	-8.60645
▁fun	-8.61079
▁set	-8.61629
▁On	-8.61714
▁exactly	-8.61858
he	-8.62222
▁food	-8.62477
ry	-8.62579
▁went	-8.62626
▁d	-8.62778
▁atheists	-8.62812
▁choice	-8.62866
’	-8.63158
▁children	-8.63179
▁school	-8.63236
▁page	-8.6336
▁level	-8.63611
▁yes	-8.63649
▁book	-8.63773
▁family	-8.63846
▁guys	-8.63888
ian	-8.63896
▁kids	-8.64397
▁:)	-8.64462
▁opinion	-8.64573
▁possible	-8.64888
▁hell	-8.6495
▁came	-8.65221
(	-8.65477
q	-8.65484
▁All	-8.65493
▁based	-8.6554
▁rest	-8.6562
ster	-8.65881
▁says	-8.65958
▁face	-8.66046
j	-8.66118
tion	-8.66242
▁funny	-8.66381
▁pro	-8.66414
▁second	-8.66447
▁ask	-8.66554
+	-8.66661
▁per	-8.66712
▁Re	-8.67338
▁experience	-8.67387
▁pre	-8.674
ci	-8.67587
▁started	-8.6771
▁vote	-8.67898
▁evidence	-8.6808
vi	-8.68381
▁K	-8.68634
▁Reddit	-8.68806
▁full	-8.68981
/)	-8.69014
ty	-8.69023
ph	-8.69108
▁business	-8.69123
▁list	-8.69229
ful	-8.69458
watch	-8.69646
▁whatever	-8.69747
▁type	-8.69872
▁De	-8.69917
po	-8.6993
▁w	-8.69931
▁happen	-8.70259
of	-8.70284
▁wanted	-8.70351
ut	-8.70379
▁comes	-8.70501
▁large	-8.70849
▁American	-8.71051
▁works	-8.71084
▁group	-8.71375
▁cool	-8.71418
▁cause	-8.71556
▁torture	-8.71751
▁value	-8.71768
▁control	-8.72032
▁become	-8.72069
▁At	-8.72218
ct	-8.72264
▁Ha	-8.72299
▁small	-8.72328
we	-8.72425
▁friend	-8.72531
▁deal	-8.72582
▁public	-8.7259
▁men	-8.72629
▁others	-8.72852
▁common	-8.73012
▁completely	-8.73761
▁comments	-8.73944
▁internet	-8.7407
ish	-8.74252
▁atheist	-8.74315
▁single	-8.74402
▁important	-8.74441
9	-8.74647
▁told	-8.75212
▁close	-8.75348
oo	-8.75403
▁definition	-8.75578
▁girl	-8.75668
ver	-8.75716
ally	-8.75785
▁words	-8.75796
▁kill	-8.75819
end	-8.75931
not	-8.75958
▁lack	-8.76018
youtube	-8.76107
▁talk	-8.7623
ary	-8.76315
▁write	-8.76429
▁self	-8.76438
▁line	-8.7647
▁worth	-8.76691
▁likely	-8.77016
▁claim	-8.77082
▁company	-8.77128
▁joke	-8.77132
▁took	-8.7725
▁cannot	-8.77415
▁looks	-8.77454
ence	-8.77683
▁die	-8.77787
▁atheism	-8.78049
J	-8.78091
▁Because	-8.78317
▁hear	-8.78701
▁couple	-8.78716
▁Your	-8.78736
▁goes	-8.78909
▁simple	-8.79118
▁explain	-8.79162
ex	-8.79273
▁friends	-8.79309
▁amount	-8.79521
▁short	-8.79522
rs	-8.79524
▁=	-8.79636
▁working	-8.79657
▁hit	-8.7967
▁price	-8.80115
▁sound	-8.80162
hi	-8.80246
▁class	-8.80296
one	-8.80444
ling	-8.80453
▁:	-8.80663
ck	-8.80982
per	-8.81565
▁version	-8.81656
▁view	-8.81666
▁source	-8.81758
ating	-8.81972
▁However	-8.82007
▁exist	-8.82185
all	-8.82204
▁light	-8.82712
▁situation	-8.82807
▁interesting	-8.83175
X	-8.83342
▁order	-8.83951
▁hold	-8.84035
mo	-8.84165
00	-8.8434
ag	-8.84489
▁Go	-8.84569
▁site	-8.84926
▁Even	-8.84988
for	-8.85069
nd	-8.85106
▁certain	-8.85143
▁ex	-8.85268
▁haven	-8.85643
▁attack	-8.85716
▁anyway	-8.86283
▁Some	-8.86387
▁One	-8.86538
▁6	-8.86578
ke	-8.86617
▁Me	-8.86637
▁usually	-8.86685
sh	-8.86715
▁similar	-8.87072
if	-8.8709
▁past	-8.8723
▁correct	-8.87307
▁/	-8.87358
▁please	-8.87529
▁computer	-8.8753
▁19	-8.87568
ated	-8.87664
ni	-8.87667
%	-8.87703
ot	-8.87757
",	-8.88145
▁problems	-8.88207
▁Let	-8.88316
▁Who	-8.88581
▁wait	-8.888
▁_	-8.88804
▁three	-8.8883
▁check	-8.88975
▁general	-8.89092
▁move	-8.89302
▁Ma	-8.89468
mon	-8.89492
▁form	-8.89613
na	-8.89663
di	-8.89872
ha	-8.90064
▁Are	-8.90177
ists	-8.90262
▁anti	-8.90441
▁learn	-8.90524
▁Thanks	-8.90559
▁whether	-8.90622
▁Good	-8.90667
▁Most	-8.91104
▁People	-8.91107
▁child	-8.9111
ial	-8.91203
▁thread	-8.91616
ever	-8.91652
▁needs	-8.92052
▁fine	-8.92059
ca	-8.92248
▁term	-8.92339
▁news	-8.92414
▁easy	-8.92478
▁black	-8.92508
ard	-8.92803
▁taking	-8.92911
▁wish	-8.92931
▁wonder	-8.93112
▁consider	-8.93155
ron	-8.93156
▁today	-8.93197
▁8	-8.9337
▁position	-8.93448
▁Can	-8.93598
▁together	-8.93831
▁marriage	-8.93864
▁gets	-8.94279
bo	-8.94615
▁given	-8.94659
?"	-8.95119
uck	-8.95182
▁games	-8.95253
▁woman	-8.95307
out	-8.95459
▁leave	-8.95716
▁reading	-8.9575
▁America	-8.96084
!"	-8.96284
▁watch	-8.96469
▁break	-8.96641
pi	-8.96656
▁dead	-8.9675
▁Here	-8.97002
▁follow	-8.97036
▁se	-8.97078
▁half	-8.97149
▁tried	-8.97206
▁certainly	-8.97404
Z	-8.97494
▁doubt	-8.97635
▁party	-8.9779
▁bring	-8.97938
ities	-8.97951
▁Windows	-8.98152
▁yeah	-8.9818
▁happened	-8.98197
mm	-8.98239
ized	-8.98263
▁allow	-8.98383
ru	-8.98397
▁sign	-8.98555
▁top	-8.98559
nna	-8.98638
os	-8.98699
▁Co	-8.99096
▁cops	-8.99301
▁J	-8.99335
▁k	-8.99342
▁St	-8.99508
you	-8.99512
▁couldn	-8.99616
con	-8.99828
▁7	-8.99954
▁Of	-9.00003
ab	-9.00059
ize	-9.00105
▁en	-9.00114
▁act	-9.00399
▁death	-9.00611
▁above	-9.01083
▁Israel	-9.0122
▁risk	-9.02598
▁stand	-9.02607
ight	-9.02625
▁saw	-9.02687
▁totally	-9.0271
▁realize	-9.02724
▁science	-9.02749
lu	-9.02779
▁front	-9.03181
▁Mo	-9.03237
▁sounds	-9.03386
▁current	-9.03441
▁living	-9.03621
▁running	-9.03632
▁fail	-9.03667
▁programming	-9.03696
▁night	-9.04145
▁di	-9.04163
▁happy	-9.04209
▁o	-9.04501
▁account	-9.04588
▁test	-9.04665
▁week	-9.0476
▁poor	-9.05025
▁society	-9.05173
▁information	-9.05173
ub	-9.05301
▁count	-9.05594
▁companies	-9.05697
ted	-9.05903
▁huge	-9.06235
▁chance	-9.06235
▁$	-9.06239
ors	-9.06249
▁crap	-9.06307
tra	-9.06309
▁outside	-9.06378
▁cost	-9.06407
ac	-9.06522
this	-9.06774
▁shouldn	-9.06832
ite	-9.06895
▁worked	-9.07183
▁process	-9.07284
▁however	-9.07418
▁20	-9.07437
during	-9.07547
▁prove	-9.07556
qui	-9.07568
ake	-9.07654
▁future	-9.0782
▁taken	-9.07845
▁respect	-9.0789
▁water	-9.07934
▁personal	-9.07978
AR	-9.08193
▁eat	-9.0851
▁entire	-9.0867
che	-9.08701
tic	-9.08713
net	-9.08822
▁An	-9.0889
▁rights	-9.08948
▁add	-9.08953
▁expect	-9.08968
▁mention	-9.09037
▁drive	-9.09091
▁clear	-9.09214
▁win	-9.09214
▁coming	-9.0922
▁social	-9.09225
old	-9.09599
▁spend	-9.09993
▁software	-9.10027
▁Linux	-9.1006
▁result	-9.10211
▁kid	-9.10248
▁legal	-9.10429
ee	-9.10467
▁economy	-9.10565
line	-9.10625
▁sh	-9.10752
▁sad	-9.1081
ba	-9.10899
▁force	-9.10901
▁original	-9.10949
▁disagree	-9.11089
▁evil	-9.11178
▁damn	-9.1127
▁itself	-9.11314
ob	-9.11467
fi	-9.11509
[	-9.11575
▁assume	-9.11654
our	-9.11695
▁X	-9.11744
▁sell	-9.11777
▁program	-9.11975
▁laws	-9.12122
like	-9.12246
▁accept	-9.12276
▁tend	-9.12506
ger	-9.12519
time	-9.12613
ER	-9.12748
▁response	-9.12765
▁worse	-9.12765
pro	-9.12836
▁sorry	-9.12909
▁happens	-9.12943
ff	-9.13221
▁subreddit	-9.13351
▁Christian	-9.1379
ick	-9.13807
▁MILLI	-9.13898
▁knew	-9.13901
ious	-9.13927
▁|	-9.14045
▁Does	-9.14141
lic	-9.14213
--	-9.14242
You	-9.14463
▁awesome	-9.1447
▁fight	-9.14497
▁sub	-9.14537
▁title	-9.14578
▁truth	-9.14588
▁Be	-9.14687
11	-9.14713
▁pick	-9.14811
ring	-9.14973
▁research	-9.15065
▁im	-9.15219
▁serious	-9.15396
jpg	-9.15622
▁shot	-9.15639
▁due	-9.15653
▁later	-9.15736
mb	-9.1611
▁statement	-9.16149
way	-9.16226
▁practice	-9.16296
ng	-9.16362
ud	-9.16652
ice	-9.16725
▁asked	-9.16923
cl	-9.17086
▁office	-9.17262
▁absolutely	-9.17436
pa	-9.17444
▁continue	-9.17571
gu	-9.17606
▁movie	-9.17904
▁writing	-9.18014
▁report	-9.18172
ator	-9.18257
▁meant	-9.18433
ny	-9.185
ay	-9.18531
▁court	-9.18565
▁asshole	-9.18571
▁music	-9.1863
▁figure	-9.18811
▁issues	-9.18824
▁THE	-9.18948
▁web	-9.18981
▁n	-9.19068
▁cr	-9.19097
▁history	-9.19165
▁enjoy	-9.1933
▁key	-9.19434
▁lead	-9.195
▁cover	-9.195
▁higher	-9.19567
▁lose	-9.19577
son	-9.19588
▁months	-9.19675
▁Wow	-9.1979
▁majority	-9.19802
▁seriously	-9.20001
bu	-9.20017
▁political	-9.20193
▁ha	-9.20301
▁Al	-9.20342
Q	-9.20356
▁hat	-9.2037
”	-9.20371
▁gave	-9.20436
▁j	-9.2049
▁age	-9.20592
▁room	-9.20653
▁sometimes	-9.20985
▁Look	-9.21029
▁written	-9.21032
▁send	-9.21068
▁hours	-9.21339
▁lost	-9.21616
▁Edit	-9.21653
▁economic	-9.2167
▁ro	-9.21726
▁provide	-9.21743
▁12	-9.21811
▁create	-9.21852
▁media	-9.21926
▁particular	-9.21984
▁actual	-9.21999
▁hot	-9.22023
▁fast	-9.22064
ern	-9.22173
▁suggest	-9.22243
▁fall	-9.22372
ise	-9.22393
▁TV	-9.22428
ual	-9.22458
▁Christians	-9.22463
land	-9.22678
12	-9.22679
ass	-9.22747
▁Man	-9.22774
▁website	-9.22833
50	-9.22951
▁beliefs	-9.2309
▁along	-9.23175
▁president	-9.23447
▁stay	-9.23483
comments	-9.23488
▁white	-9.2353
▁picture	-9.23648
my	-9.23935
ative	-9.23936
da	-9.24071
▁defend	-9.24094
▁crazy	-9.24128
▁brain	-9.2415
that	-9.24182
▁box	-9.24267
cu	-9.24447
▁fire	-9.24599
▁Christmas	-9.2472
▁oil	-9.24768
▁po	-9.24818
▁involved	-9.24913
go	-9.24992
▁concept	-9.25095
▁la	-9.25206
▁asking	-9.25329
▁Jesus	-9.25357
▁killed	-9.25423
▁giving	-9.2547
ton	-9.25504
▁plan	-9.25648
ped	-9.25658
ec	-9.25709
ure	-9.25787
▁interest	-9.2591
▁bunch	-9.26012
▁definitely	-9.26019
ING	-9.26027
ions	-9.26086
/7	-9.26209
▁Con	-9.26391
mp	-9.26399
▁Actually	-9.26643
▁behind	-9.26643
▁reality	-9.26815
▁app	-9.26825
▁supposed	-9.26854
gg	-9.2689
▁blog	-9.26998
▁1.	-9.27021
▁lives	-9.27041
▁ass	-9.27046
les	-9.27225
▁illegal	-9.27292
▁present	-9.27357
▁playing	-9.2736
▁Ro	-9.27361
▁train	-9.27363
ations	-9.27417
▁v	-9.27462
pl	-9.27571
▁several	-9.27946
ath	-9.27946
▁data	-9.27957
ler	-9.28005
side	-9.28032
▁paper	-9.28056
nt	-9.28108
ide	-9.28182
gi	-9.28375
▁minutes	-9.28592
▁argue	-9.28605
▁return	-9.28621
▁Please	-9.28638
▁“	-9.28675
▁voted	-9.28743
▁obviously	-9.28799
▁GM	-9.28801
▁effect	-9.28879
▁moral	-9.29131
ak	-9.29171
▁subject	-9.29234
▁purpose	-9.29288
▁knowledge	-9.29292
▁pull	-9.29312
▁land	-9.29336
ical	-9.29515
oc	-9.29642
▁needed	-9.29898
▁click	-9.29932
▁smart	-9.29933
▁attempt	-9.29933
▁deserve	-9.29936
▁record	-9.29936
▁basically	-9.29944
`	-9.29983
▁moment	-9.29983
wa	-9.30131
▁bitch	-9.30152
ach	-9.30178
▁logic	-9.30494
▁Which	-9.30603
▁demand	-9.30604
▁Where	-9.30625
▁especially	-9.30706
▁With	-9.30725
▁0	-9.3078
▁main	-9.30782
▁Fuck	-9.30793
io	-9.31209
▁perhaps	-9.31307
ah	-9.31451
gra	-9.31654
▁safe	-9.31667
▁thanks	-9.317
▁ta	-9.31831
▁protect	-9.3195
▁discussion	-9.32065
▁paid	-9.32077
▁speak	-9.32092
▁longer	-9.32105
20	-9.32162
▁phone	-9.3219
▁mine	-9.32217
art	-9.32246
ns	-9.32552
▁tax	-9.32596
▁major	-9.32601
ber	-9.32618
▁Sorry	-9.3268
#	-9.32713
news	-9.32939
der	-9.33057
▁wants	-9.33092
▁sl	-9.33176
▁bullshit	-9.33334
ft	-9.33337
▁push	-9.33346
▁comp	-9.33379
▁ma	-9.33498
▁smoke	-9.33587
▁complete	-9.33883
▁Paul	-9.3405
▁special	-9.34106
que	-9.34367
▁project	-9.34385
!!!	-9.34445
▁building	-9.34512
ner	-9.34553
▁cheap	-9.34567
fe	-9.34605
but	-9.3471
▁drunk	-9.34728
▁easily	-9.34728
▁protest	-9.34728
▁wife	-9.34732
▁bar	-9.34916
hose	-9.35034
▁Mi	-9.35103
by	-9.35296
▁local	-9.35437
▁Monsanto	-9.35465
▁ones	-9.35486
▁suck	-9.35529
▁low	-9.35535
▁body	-9.35625
▁fan	-9.35766
IN	-9.35877
mer	-9.36018
▁gr	-9.36027
ED	-9.36046
bi	-9.36057
cc	-9.36059
▁military	-9.36141
▁himself	-9.36162
php	-9.36345
▁share	-9.36419
▁fair	-9.36508
ew	-9.36543
▁install	-9.36576
eg	-9.36694
fa	-9.36786
▁prefer	-9.36843
▁cut	-9.36914
use	-9.37024
▁file	-9.37031
▁quote	-9.37095
▁Sure	-9.37146
▁user	-9.37206
ill	-9.3726
▁soon	-9.37366
▁Le	-9.37424
▁Z	-9.37515
▁church	-9.37527
▁image	-9.37541
▁imagine	-9.37575
▁population	-9.37604
▁throw	-9.37723
▁le	-9.37845
▁strong	-9.38151
ible	-9.38282
▁credit	-9.38356
▁From	-9.38366
▁culture	-9.38395
▁Get	-9.3841
▁ho	-9.38451
▁waste	-9.38516
so	-9.38562
▁Did	-9.38583
▁decided	-9.38614
▁By	-9.38735
▁function	-9.38969
od	-9.3914
▁require	-9.39289
▁gone	-9.39333
▁song	-9.39385
▁within	-9.39486
▁Y	-9.39678
▁option	-9.39699
▁easier	-9.39765
▁See	-9.39805
▁quality	-9.39831
▁stick	-9.39889
▁theory	-9.39915
▁red	-9.39942
▁clearly	-9.40072
▁forget	-9.40181
▁Pa	-9.40432
act	-9.40552
▁specific	-9.40581
▁model	-9.40621
▁sexual	-9.40711
▁search	-9.4079
▁save	-9.40963
▁9	-9.41051
\	-9.41074
▁natural	-9.41123
▁relationship	-9.4117
bb	-9.41173
▁service	-9.41237
▁fear	-9.41283
▁solution	-9.41296
ga	-9.41359
▁u	-9.41362
ens	-9.41604
▁known	-9.41836
▁takes	-9.41918
▁After	-9.42004
ON	-9.42018
▁fit	-9.42025
▁community	-9.42034
▁college	-9.42053
▁NOT	-9.42062
!!	-9.421
▁edit	-9.42149
▁shoot	-9.42269
▁air	-9.42446
ip	-9.42656
▁considered	-9.42706
▁difficult	-9.42761
▁energy	-9.42761
▁dream	-9.42761
▁choose	-9.42763
▁shows	-9.42765
▁alone	-9.42768
▁faith	-9.4282
▁spent	-9.42835
▁buying	-9.43075
off	-9.43237
▁obvious	-9.43343
va	-9.43391
cy	-9.43398
▁weeks	-9.43454
▁offer	-9.43507
▁driving	-9.43524
▁worry	-9.43526
▁city	-9.43649
▁La	-9.44328
▁store	-9.44407
which	-9.44451
▁New	-9.44509
▁Americans	-9.44517
▁ba	-9.44628
▁cars	-9.44682
▁vi	-9.44773
10	-9.448
▁online	-9.44977
▁fl	-9.44999
▁character	-9.45063
▁straight	-9.45069
▁YOU	-9.45071
▁otherwise	-9.451
▁porn	-9.45195
▁na	-9.4522
▁text	-9.45222
▁ra	-9.45348
▁young	-9.45437
▁mis	-9.45602
▁sw	-9.45697
▁industry	-9.4585
▁countries	-9.4585
▁dick	-9.45902
▁corporate	-9.4594
▁mu	-9.45953
▁shoes	-9.46172
ze	-9.46177
▁meaning	-9.46416
▁books	-9.46596
▁step	-9.46672
rr	-9.46715
▁Thank	-9.46747
It	-9.46751
▁proof	-9.46791
▁gun	-9.46808
▁generally	-9.47041
▁clean	-9.4713
▁ability	-9.47174
▁design	-9.4728
▁allowed	-9.47339
▁Seriously	-9.47431
▁machine	-9.47431
▁prevent	-9.47446
OR	-9.47506
▁oh	-9.47527
▁month	-9.47576
her	-9.47604
▁content	-9.47668
▁Iraq	-9.4773
▁action	-9.47789
▁driver	-9.47894
▁calling	-9.47927
▁product	-9.47981
▁normal	-9.4804
▁50	-9.48099
den	-9.48204
▁million	-9.48371
▁Pro	-9.48396
rate	-9.48589
▁interested	-9.4877
▁understanding	-9.48842
ric	-9.48846
▁30	-9.48855
▁dog	-9.48869
▁voice	-9.49038
▁Whil	-9.49072
▁Lo	-9.49257
light	-9.49435
▁bo	-9.49675
▁method	-9.49851
▁context	-9.49856
▁father	-9.49864
▁:(	-9.49889
▁His	-9.50094
▁build	-9.50217
▁rational	-9.50368
15	-9.50379
ified	-9.50443
▁laugh	-9.50495
ep	-9.50512
▁parents	-9.50553
port	-9.50637
▁recommend	-9.5067
▁false	-9.50735
▁EDIT	-9.5076
▁telling	-9.5087
gen	-9.50947
▁standard	-9.50984
▁reasons	-9.50992
▁burn	-9.51063
br	-9.51072
uk	-9.51085
ably	-9.51203
▁near	-9.51291
how	-9.51468
▁judge	-9.51497
▁therefore	-9.51498
▁third	-9.51499
▁bomb	-9.51509
▁middle	-9.51556
▁focus	-9.51556
▁gain	-9.51569
ow	-9.51601
▁fat	-9.51629
▁animals	-9.51668
▁cat	-9.51712
▁across	-9.51736
au	-9.52058
▁hurt	-9.52335
▁systems	-9.5236
▁Right	-9.52364
▁scientific	-9.52436
▁pass	-9.52498
▁upon	-9.52585
ja	-9.52744
▁towards	-9.52797
▁except	-9.53046
▁stories	-9.53175
▁degree	-9.5319
▁bought	-9.5319
▁security	-9.53215
▁color	-9.53232
"?	-9.53324
book	-9.53393
▁lower	-9.53393
ward	-9.53398
▁vari	-9.53429
▁These	-9.53697
lin	-9.53865
ev	-9.53868
▁mother	-9.54025
▁looked	-9.54073
▁anymore	-9.54076
rk	-9.54109
▁super	-9.5424
▁posted	-9.54263
including	-9.54272
▁inside	-9.54374
▁avoid	-9.54411
ology	-9.54418
ade	-9.54428
over	-9.5449
*.	-9.54832
▁blame	-9.54873
▁worst	-9.54873
▁average	-9.54873
,000	-9.54955
▁rock	-9.54961
▁ideas	-9.54976
▁18	-9.54979
read	-9.55057
▁useful	-9.55198
08	-9.55232
▁inter	-9.55234
▁upvote	-9.55367
▁Ah	-9.55415
▁created	-9.55483
▁fix	-9.55491
▁actions	-9.55625
vo	-9.55638
▁girls	-9.55641
▁wrote	-9.55735
▁random	-9.55738
▁sentence	-9.55747
▁sin	-9.55902
▁weren	-9.55969
▁l	-9.55978
▁turned	-9.5601
▁include	-9.56164
▁listen	-9.56245
ile	-9.56261
▁willing	-9.56529
▁`	-9.56537
▁regard	-9.56567
▁ten	-9.56578
▁cases	-9.56583
▁valid	-9.56604
▁Like	-9.56625
▁ri	-9.56625
▁hair	-9.56645
▁available	-9.56645
▁private	-9.56661
▁First	-9.56662
▁rules	-9.56709
pri	-9.56786
RE	-9.56793
▁100	-9.5689
▁Po	-9.56997
▁increase	-9.57041
▁em	-9.57155
int	-9.57184
▁Have	-9.57217
qu	-9.57253
▁pot	-9.57271
ack	-9.57352
▁represent	-9.57393
▁address	-9.57482
▁dont	-9.57486
▁star	-9.57657
view	-9.57702
▁reasonable	-9.57782
bs	-9.58023
▁OS	-9.58074
▁access	-9.58349
▁fault	-9.58367
▁popular	-9.58369
▁Joe	-9.58376
▁sick	-9.58397
▁existence	-9.58399
▁dude	-9.584
▁watching	-9.58539
▁rate	-9.5864
ier	-9.58766
▁Hey	-9.58841
▁piece	-9.58856
▁wear	-9.58971
▁gives	-9.59099
▁perfect	-9.59202
▁effort	-9.59259
▁rich	-9.59301
right	-9.59341
▁admit	-9.59381
▁fucked	-9.59395
▁TO	-9.59397
▁15	-9.59435
▁grow	-9.59436
▁surprised	-9.59514
▁IS	-9.59589
▁personally	-9.59739
▁shoe	-9.59799
▁honest	-9.59934
In	-9.59978
▁idiot	-9.60091
rd	-9.60157
▁numbers	-9.6016
▁policy	-9.6016
▁English	-9.60225
▁x	-9.60258
▁area	-9.60273
▁crops	-9.60276
▁WTF	-9.60293
▁cop	-9.60293
▁Q	-9.60407
▁manager	-9.60441
kin	-9.60471
▁produce	-9.60546
ability	-9.60666
▁places	-9.60759
▁basic	-9.61057
▁weird	-9.61076
▁message	-9.6109
▁blow	-9.61106
▁somewhere	-9.61113
ple	-9.61126
▁Atheism	-9.61141
▁reference	-9.61159
▁Com	-9.61194
ient	-9.61359
▁bi	-9.61436
ship	-9.61476
▁topic	-9.61556
▁Ra	-9.61835
▁dollars	-9.6184
▁card	-9.61983
▁freedom	-9.62011
▁road	-9.62029
▁election	-9.62034
▁finally	-9.62092
▁taxes	-9.62113
ka	-9.62225
▁More	-9.6251
▁results	-9.62533
▁lol	-9.62628
▁mod	-9.627
▁Ho	-9.62801
▁ridiculous	-9.62913
▁debt	-9.62917
▁fuel	-9.6293
▁eyes	-9.62984
▁du	-9.63015
▁nation	-9.63035
▁War	-9.63148
▁sucks	-9.63197
▁drink	-9.63283
ail	-9.63495
▁decision	-9.63578
30	-9.63719
▁seeing	-9.63843
▁Perhaps	-9.63847
▁attention	-9.63847
▁browser	-9.63848
▁debate	-9.63848
▁further	-9.63849
▁art	-9.63882
▁christian	-9.63929
▁sc	-9.63948
?!	-9.64015
▁begin	-9.64063
▁team	-9.6408
▁farm	-9.64093
▁killing	-9.64274
LE	-9.64384
19	-9.64437
18	-9.64504
▁pa	-9.64623
▁health	-9.64702
red	-9.64757
▁dumb	-9.64794
▁email	-9.64821
▁bag	-9.64832
some	-9.6487
▁camera	-9.64881
can	-9.65027
▁notice	-9.65045
▁press	-9.65536
▁luck	-9.65561
▁track	-9.65638
ization	-9.65721
▁extra	-9.65739
▁street	-9.65744
▁posting	-9.65756
▁cell	-9.6577
nu	-9.65846
▁screen	-9.65901
▁directly	-9.65961
ase	-9.66021
▁ways	-9.66059
bar	-9.6609
well	-9.66125
vent	-9.66147
ther	-9.66318
▁photo	-9.66371
▁terms	-9.66405
aking	-9.66413
▁terrorist	-9.66524
▁complex	-9.66661
▁murder	-9.66748
▁;)	-9.66793
own	-9.66804
▁copy	-9.66918
No	-9.66991
▁troll	-9.6714
work	-9.67194
▁mostly	-9.67309
▁Iraqi	-9.67312
ically	-9.67334
▁release	-9.67348
▁posts	-9.6736
▁base	-9.67534
▁son	-9.67568
▁ca	-9.67627
▁afford	-9.67675
▁foreign	-9.67677
▁stopped	-9.6772
▁abuse	-9.67727
▁users	-9.67735
▁recently	-9.67807
mail	-9.68095
ash	-9.68189
ign	-9.68293
▁plane	-9.68367
▁equal	-9.68384
▁object	-9.68484
▁author	-9.68529
▁rule	-9.68557
▁gold	-9.6861
▁advice	-9.68656
▁plenty	-9.68656
▁violence	-9.68656
▁miss	-9.68958
▁beat	-9.68972
ank	-9.69066
▁mess	-9.6913
▁paying	-9.69142
▁PC	-9.69184
led	-9.69206
ell	-9.69262
▁2.	-9.69318
▁individual	-9.69545
▁direct	-9.69587
ang	-9.69592
ame	-9.69606
▁br	-9.69645
▁impossible	-9.69646
▁nature	-9.69656
▁shut	-9.69678
▁Per	-9.69685
▁block	-9.69687
▁nobody	-9.69718
▁following	-9.69821
▁Ba	-9.69916
▁trade	-9.69955
blog	-9.70262
EN	-9.70451
htm	-9.70459
head	-9.70496
▁trouble	-9.70646
▁agnostic	-9.70661
▁broken	-9.70718
king	-9.70784
▁putting	-9.70825
lan	-9.7087
tin	-9.71055
lock	-9.71155
▁decide	-9.71219
part	-9.71296
af	-9.71299
▁ok	-9.71316
▁DO	-9.71325
izing	-9.71459
▁album	-9.71519
▁states	-9.71553
imp	-9.71602
▁gu	-9.71607
▁eye	-9.7161
▁points	-9.71614
rn	-9.71621
▁bother	-9.71634
▁NO	-9.71643
▁expensive	-9.71779
▁AND	-9.71838
▁space	-9.71912
▁learning	-9.71917
???	-9.7203
atic	-9.72106
▁prices	-9.7221
▁mom	-9.72338
mit	-9.72378
▁windows	-9.72629
▁excuse	-9.72678
men	-9.72687
▁baby	-9.72689
▁modern	-9.72691
cal	-9.72693
ox	-9.72765
80	-9.72951
▁Mr	-9.72991
▁types	-9.73049
$	-9.73055
▁exists	-9.73116
40	-9.73267
▁touch	-9.73336
▁victim	-9.73707
▁double	-9.73709
▁jail	-9.73717
ock	-9.73724
▁benefit	-9.73736
▁among	-9.73743
▁Christianity	-9.73785
▁education	-9.73795
▁trust	-9.73851
▁Da	-9.73946
form	-9.73976
▁Ron	-9.74065
ral	-9.74086
▁counter	-9.74219
▁limit	-9.74317
▁Car	-9.74317
▁parts	-9.74328
▁Sounds	-9.74336
▁pure	-9.74434
▁mo	-9.74546
ping	-9.7461
ug	-9.74644
27	-9.74735
▁folks	-9.74749
▁negative	-9.74753
▁President	-9.74761
▁felt	-9.74773
▁profit	-9.74774
▁apparently	-9.74791
ray	-9.748
▁join	-9.74825
▁liberal	-9.74844
▁shitty	-9.74878
▁Make	-9.74957
ging	-9.75124
▁note	-9.75131
▁rid	-9.75346
AN	-9.75403
▁tru	-9.75443
▁refer	-9.75484
▁sa	-9.75598
▁members	-9.75619
▁environment	-9.75718
▁hands	-9.75757
▁conversation	-9.75802
▁holiday	-9.75802
▁bailout	-9.75806
▁China	-9.75806
▁switch	-9.75809
60	-9.75832
▁earth	-9.75839
▁headline	-9.75852
▁bill	-9.75865
▁official	-9.75884
▁OK	-9.75888
▁film	-9.75891
free	-9.76057
▁3.	-9.76115
what	-9.76133
What	-9.76263
▁band	-9.76476
06	-9.76488
▁feeling	-9.76515
pp	-9.76605
unk	-9.76632
▁meet	-9.76746
▁behavior	-9.76865
▁eventually	-9.76865
▁necessary	-9.76865
▁sleep	-9.76865
▁jump	-9.76873
▁daughter	-9.76922
▁walk	-9.76933
▁deep	-9.76937
▁four	-9.76937
95	-9.76951
▁jobs	-9.77
▁pe	-9.77058
▁changed	-9.77101
▁Un	-9.77137
rought	-9.77158
▁Sa	-9.7721
fer	-9.77444
▁r	-9.77491
US	-9.77523
14	-9.7754
▁heart	-9.77786
down	-9.7782
▁died	-9.77882
▁occur	-9.77932
▁convince	-9.77941
▁financial	-9.77941
▁speech	-9.77941
▁multiple	-9.77944
gotten	-9.77955
▁spread	-9.77964
▁review	-9.78011
▁Great	-9.7802
▁girlfriend	-9.78029
▁sent	-9.78061
▁seed	-9.78065
▁cur	-9.78098
▁dollar	-9.78116
▁somehow	-9.78128
▁army	-9.78138
▁bashing	-9.78425
▁fa	-9.78434
▁religions	-9.78496
wi	-9.78522
17	-9.78535
▁load	-9.78578
▁cap	-9.78589
ten	-9.78742
25	-9.78979
fuck	-9.78986
▁South	-9.79018
▁arguing	-9.79028
▁possibly	-9.79028
▁Warren	-9.79028
▁thus	-9.7903
▁speed	-9.79031
▁handle	-9.79052
▁stuck	-9.79081
▁fake	-9.79089
▁billion	-9.7911
▁reply	-9.79185
16	-9.79195
tter	-9.79199
▁hasn	-9.79295
cent	-9.79388
day	-9.79506
load	-9.79543
▁lots	-9.79599
OW	-9.79681
uch	-9.79738
▁bank	-9.79872
▁size	-9.7995
▁favor	-9.80115
▁amazing	-9.80127
▁contact	-9.80127
▁damage	-9.80127
▁tree	-9.80129
▁gift	-9.8013
▁lawyer	-9.80133
▁snow	-9.80136
▁Anyway	-9.80137
▁stock	-9.80157
▁eating	-9.80245
▁Try	-9.80292
serv	-9.80324
▁IT	-9.80397
▁honestly	-9.80404
▁town	-9.80418
▁cross	-9.80429
▁waiting	-9.80438
ok	-9.80646
▁CO	-9.80766
▁States	-9.81043
▁forced	-9.81072
▁Would	-9.8108
▁charge	-9.81084
▁learned	-9.81187
▁silly	-9.81238
▁favorite	-9.8125
▁failure	-9.8126
kept	-9.81301
▁catch	-9.8131
▁positive	-9.81318
▁reach	-9.81338
▁leg	-9.81348
▁pain	-9.81385
▁ch	-9.81386
▁style	-9.81444
▁Dr	-9.81476
▁sites	-9.81544
ki	-9.81754
hy	-9.81852
bit	-9.81902
▁played	-9.81912
▁arrest	-9.81928
▁concern	-9.81928
▁manage	-9.82212
▁glad	-9.82362
▁Anyone	-9.82376
▁Any	-9.82382
▁dark	-9.82384
▁necessarily	-9.82386
▁spot	-9.82427
itch	-9.825
▁Really	-9.82513
▁y	-9.82529
▁early	-9.82532
22	-9.82605
get	-9.82613
istic	-9.82706
let	-9.82786
just	-9.82902
▁door	-9.82932
har	-9.831
▁fund	-9.83113
▁+	-9.83189
▁costs	-9.83284
cid	-9.83486
▁auto	-9.83488
▁fundamental	-9.83498
▁suspect	-9.83498
▁remain	-9.83498
▁bird	-9.83508
▁Ubuntu	-9.83551
▁race	-9.83556
▁nor	-9.83566
▁officers	-9.83658
▁nearly	-9.83811
▁meat	-9.83847
▁none	-9.8398
here	-9.84006
unt	-9.84021
▁tra	-9.8407
If	-9.84196
▁starting	-9.84197
ory	-9.84325
▁fo	-9.84411
mod	-9.84447
▁extreme	-9.84543
▁sit	-9.84543
▁hu	-9.84555
▁approach	-9.84647
▁material	-9.84647
▁KDE	-9.84659
▁cold	-9.84699
▁civil	-9.84701
▁alternative	-9.84701
▁download	-9.84711
nic	-9.84729
AL	-9.84779
arm	-9.84843
▁server	-9.84925
▁fairly	-9.85015
▁arm	-9.85077
▁male	-9.85271
▁Spe	-9.85312
▁throwing	-9.8556
▁goal	-9.85599
ture	-9.85629
fu	-9.85704
rely	-9.85738
▁ignorant	-9.8581
▁opposite	-9.8581
▁neither	-9.85814
▁conclusion	-9.85814
▁odd	-9.85819
▁insurance	-9.85821
▁taste	-9.85826
▁agent	-9.85869
▁mass	-9.85913
▁confused	-9.85936
▁Take	-9.86001
▁invest	-9.8602
▁quickly	-9.86035
▁ground	-9.8606
▁wall	-9.86125
▁five	-9.86153
ets	-9.86179
24	-9.86182
▁dad	-9.86184
▁appear	-9.86228
UR	-9.86331
▁limited	-9.86372
ky	-9.86475
nce	-9.86492
▁claims	-9.86719
▁quick	-9.8676
/2	-9.86796
▁Je	-9.86833
press	-9.86868
war	-9.86985
▁beyond	-9.86986
▁intelligent	-9.86986
▁perspective	-9.86986
▁contain	-9.86986
▁desire	-9.86987
▁generation	-9.86998
▁marijuana	-9.8702
▁Google	-9.87034
▁command	-9.87072
▁property	-9.87075
▁links	-9.87078
ax	-9.87089
▁pr	-9.87156
▁lie	-9.87174
lon	-9.87264
▁ran	-9.87281
▁perfectly	-9.87286
▁lo	-9.87347
▁Many	-9.87422
▁thank	-9.8753
▁hour	-9.87554
▁crime	-9.87555
▁votes	-9.87607
▁Tra	-9.87609
▁aware	-9.87686
▁Pi	-9.87759
▁failed	-9.8798
zi	-9.87998
other	-9.88138
zz	-9.88138
▁target	-9.88177
▁instance	-9.88178
▁nuclear	-9.88179
▁corrupt	-9.88179
▁submission	-9.88183
▁LOL	-9.88202
▁politics	-9.88285
▁although	-9.88368
▁voting	-9.88375
▁spam	-9.88379
ily	-9.88389
even	-9.88425
▁planet	-9.88465
▁su	-9.88588
▁math	-9.88637
▁entirely	-9.8868
=1	-9.88731
This	-9.88769
▁qua	-9.89102
▁physical	-9.89152
list	-9.89221
ley	-9.89224
OL	-9.89352
▁realized	-9.89362
AM	-9.89369
▁Buddhism	-9.89382
▁Wait	-9.89382
▁potential	-9.89384
▁visit	-9.89385
▁strange	-9.89394
▁display	-9.89404
▁programmers	-9.89443
▁technology	-9.89461
▁global	-9.89491
▁loss	-9.89504
▁opposed	-9.89528
▁knows	-9.89557
▁fe	-9.89588
▁Ok	-9.8959
32	-9.89607
▁national	-9.89635
▁print	-9.8964
coming	-9.89898
ute	-9.89901
play	-9.8999
▁SO	-9.90126
hu	-9.90145
ency	-9.90232
▁90	-9.90291
ES	-9.90333
▁exact	-9.904
gn	-9.90416
ome	-9.90561
▁proper	-9.90575
▁accurate	-9.90601
▁built	-9.90601
▁study	-9.90601
▁Internet	-9.90601
▁Damn	-9.90602
▁decent	-9.90645
▁sold	-9.90659
▁Clark	-9.90682
▁flash	-9.90707
▁document	-9.90712
▁uses	-9.90789
▁11	-9.91002
▁teacher	-9.91055
▁compared	-9.91058
▁customer	-9.91117
▁missed	-9.91166
▁Every	-9.91452
ey	-9.91453
▁bear	-9.91493
▁prop	-9.91527
nch	-9.9168
▁highly	-9.91699
app	-9.91784
▁universe	-9.91836
▁married	-9.91836
▁measure	-9.91836
▁Since	-9.91836
▁insult	-9.91839
▁comic	-9.91845
▁direction	-9.91974
▁parties	-9.92083
▁field	-9.92103
ID	-9.92144
OT	-9.92194
oh	-9.9229
▁humans	-9.92415
▁programs	-9.92423
▁IN	-9.9245
▁drug	-9.92512
▁onto	-9.92678
▁loved	-9.92914
IS	-9.92977
▁fighting	-9.93075
▁genetic	-9.93078
▁appreciate	-9.93086
▁memory	-9.93087
▁prison	-9.93087
▁freak	-9.9309
▁horrible	-9.9309
▁brother	-9.93092
▁vs	-9.93093
▁influence	-9.93096
04	-9.93137
▁cash	-9.93139
▁penis	-9.93157
▁farmers	-9.93167
▁slightly	-9.93176
▁factor	-9.93273
▁cha	-9.93275
▁#	-9.93292
▁elected	-9.93318
75	-9.9332
Re	-9.93331
▁ball	-9.93338
air	-9.93391
name	-9.93405
▁pop	-9.93466
▁caused	-9.9361
▁consequences	-9.93668
09	-9.9369
ning	-9.9372
google	-9.93729
▁ignore	-9.9391
▁tool	-9.93912
▁weight	-9.93926
▁products	-9.9414
▁effective	-9.94194
▁became	-9.94352
▁angry	-9.94353
have	-9.94371
▁Unless	-9.94395
▁da	-9.94399
▁Mac	-9.9442
assuming	-9.94427
link	-9.94433
29	-9.94464
▁Our	-9.94508
▁regardless	-9.94529
▁Na	-9.94598
▁mark	-9.94737
13	-9.94764
iggest	-9.94794
ou	-9.94836
bl	-9.94863
▁currently	-9.94916
jo	-9.94945
▁questions	-9.94961
car	-9.95042
▁error	-9.9511
▁roll	-9.95131
▁citizen	-9.95141
▁wide	-9.95331
▁mentioned	-9.95369
don	-9.9538
▁arguments	-9.95498
▁rape	-9.95547
▁alcohol	-9.95634
▁element	-9.95634
▁ya	-9.95635
▁resources	-9.95635
▁contract	-9.95638
▁okay	-9.95648
▁specifically	-9.95662
▁mix	-9.95665
▁authority	-9.9569
99	-9.95749
dic	-9.95792
▁shop	-9.95899
▁2008	-9.95974
▁range	-9.95993
▁successful	-9.96073
ify	-9.96096
▁Du	-9.9629
source	-9.96314
▁pretend	-9.96359
▁knowing	-9.96398
ugh	-9.96479
▁forward	-9.96533
▁standards	-9.9658
▁added	-9.96682
▁wealth	-9.96727
▁serve	-9.96844
▁bottom	-9.96932
▁mouth	-9.96932
▁phrase	-9.96932
▁smoking	-9.96932
▁blind	-9.96933
▁aspect	-9.96933
▁basis	-9.96935
▁Mar	-9.96937
▁forgot	-9.96959
▁indeed	-9.96959
▁organization	-9.96972
▁homosexuality	-9.96972
▁Am	-9.96979
▁carry	-9.97053
▁UK	-9.97054
▁boss	-9.97106
▁retarded	-9.97115
▁considering	-9.97225
▁role	-9.97242
▁decisions	-9.97308
ek	-9.97342
▁related	-9.97376
▁Hell	-9.97431
ned	-9.97482
▁google	-9.97574
AY	-9.97574
▁passed	-9.97605
05	-9.97606
law	-9.97813
edu	-9.97914
▁Israeli	-9.9799
▁previous	-9.98018
▁speaking	-9.98025
dr	-9.98106
▁Th	-9.9823
▁encourage	-9.98248
▁United	-9.98248
▁Unfortunately	-9.98249
▁logical	-9.98255
▁referring	-9.98263
▁crash	-9.98287
▁massive	-9.98288
▁bigger	-9.98314
▁Nice	-9.9832
▁six	-9.98376
▁articles	-9.98376
▁Ne	-9.98383
▁commit	-9.98446
▁remove	-9.98455
▁plain	-9.98473
▁becomes	-9.98488
▁annoying	-9.98495
▁total	-9.9854
▁finding	-9.98745
▁che	-9.98942
▁MS	-9.99031
▁Cha	-9.99035
▁mistake	-9.9904
▁treat	-9.99105
▁suppose	-9.99144
gate	-9.99152
▁lines	-9.99395
▁guns	-9.99477
▁Catholic	-9.99581
▁Python	-9.99581
▁laptop	-9.99581
▁travel	-9.99583
▁incest	-9.99591
▁dangerous	-9.99592
▁Java	-9.99593
▁status	-9.996
▁anywhere	-9.9963
▁Bo	-9.9963
▁moron	-9.99631
▁production	-9.99687
▁features	-9.99693
▁born	-9.99773
▁def	-9.99796
▁13	-10.0003
▁40	-10.0003
▁min	-10.0025
▁thousands	-10.0027
year	-10.0032
ians	-10.0033
▁Li	-10.0039
▁missing	-10.004
64	-10.0052
▁kick	-10.0053
▁slow	-10.0056
▁kinda	-10.0056
▁Sc	-10.0066
ui	-10.009
▁administration	-10.0093
▁afraid	-10.0093
▁assumption	-10.0093
▁9/11	-10.0093
▁keyboard	-10.0094
▁equivalent	-10.0097
▁criminal	-10.0102
▁held	-10.0107
▁ALL	-10.0123
▁engine	-10.0138
wn	-10.014
fully	-10.0141
nc	-10.015
▁wearing	-10.0182
▁ship	-10.0187
pping	-10.0214
▁express	-10.0222
gue	-10.0229
▁drop	-10.0229
▁responsible	-10.023
▁shame	-10.0232
▁fully	-10.0233
▁Bu	-10.0236
▁FUCK	-10.0237
▁desktop	-10.0237
▁Everyone	-10.0238
▁update	-10.0241
▁h	-10.0242
▁trip	-10.0243
▁Once	-10.0244
▁script	-10.0249
▁busy	-10.025
▁Sha	-10.0259
ither	-10.0272
▁helps	-10.0276
▁noticed	-10.0297
37	-10.0297
▁changes	-10.0299
▁Atheists	-10.0305
▁date	-10.0306
ME	-10.032
▁piss	-10.0327
▁sales	-10.0331
▁animal	-10.0341
▁gas	-10.0348
▁late	-10.0356
▁homosexual	-10.0365
RA	-10.0367
▁believing	-10.0369
▁kernel	-10.0369
▁separate	-10.0369
▁technique	-10.0369
▁period	-10.0369
key	-10.0369
▁resist	-10.0371
▁performance	-10.0371
▁foot	-10.0371
▁crack	-10.0372
▁literally	-10.0377
▁linux	-10.0378
ker	-10.0379
▁defense	-10.0379
▁movement	-10.0383
▁HA	-10.0387
▁acting	-10.0395
IT	-10.04
▁apply	-10.0418
dom	-10.0424
▁Hu	-10.0435
▁mad	-10.0438
▁fixed	-10.0439
board	-10.0451
los	-10.0451
▁log	-10.0451
article	-10.0452
▁shooting	-10.0475
room	-10.0482
▁hi	-10.0484
▁adult	-10.0484
uff	-10.049
▁virtual	-10.0494
▁Fi	-10.0494
they	-10.0503
▁purchase	-10.051
▁twice	-10.051
▁supply	-10.051
▁Sometimes	-10.051
▁skills	-10.051
01	-10.0517
▁consumer	-10.052
▁lived	-10.0522
▁blue	-10.0522
▁MY	-10.0522
pot	-10.0525
▁sarcasm	-10.0525
▁vast	-10.0526
▁fi	-10.0527
▁ideal	-10.0531
▁powerful	-10.0538
▁Bill	-10.0543
▁ga	-10.0547
try	-10.0555
▁facts	-10.0559
▁concerned	-10.0565
dding	-10.0566
hal	-10.0577
mar	-10.0592
▁evolution	-10.0599
▁hang	-10.0599
ink	-10.0601
log	-10.0606
▁involve	-10.0609
▁ne	-10.061
▁millions	-10.0628
▁blood	-10.0632
▁define	-10.0638
till	-10.0641
dis	-10.0646
▁Congress	-10.0653
▁THAT	-10.0653
▁scene	-10.0653
▁Ta	-10.0653
▁Another	-10.0654
%20	-10.0655
▁finger	-10.0655
▁hardware	-10.0656
▁selling	-10.0656
depend	-10.0659
▁somebody	-10.0662
▁setting	-10.0665
▁Will	-10.067
▁conservative	-10.067
He	-10.0671
..."	-10.0675
▁via	-10.068
70	-10.0686
▁Ex	-10.0695
nder	-10.0715
she	-10.0729
▁happening	-10.0731
oe	-10.0732
video	-10.0736
▁required	-10.0738
▁bus	-10.0742
▁sue	-10.0744
1.	-10.0759
▁Was	-10.0778
▁..	-10.0779
▁corn	-10.0783
▁implement	-10.0784
▁harm	-10.0795
▁assault	-10.0798
▁excellent	-10.0798
▁iPhone	-10.0798
▁Earth	-10.0798
200	-10.0806
▁Law	-10.0807
▁punch	-10.0807
▁secret	-10.0808
▁letter	-10.0808
▁enter	-10.081
07	-10.0816
▁officer	-10.0821
▁forever	-10.0844
▁Her	-10.0846
za	-10.0847
▁practical	-10.0847
AA	-10.085
▁particularly	-10.0852
▁Se	-10.0857
▁wi	-10.0864
▁drugs	-10.0866
26	-10.0876
ark	-10.0876
ware	-10.0889
▁z	-10.0893
▁hole	-10.0894
SE	-10.0921
▁cares	-10.0924
ney	-10.0943
▁appropriate	-10.0945
▁maintain	-10.0945
▁Flash	-10.0945
▁patent	-10.0945
▁consent	-10.0945
▁initial	-10.0946
▁beginning	-10.0946
▁curious	-10.0946
▁boring	-10.0948
▁essentially	-10.0953
5%	-10.0959
▁compiler	-10.0963
▁according	-10.0964
▁mental	-10.0965
late	-10.0967
▁wa	-10.0973
▁feature	-10.0978
▁lock	-10.0994
images	-10.0994
ET	-10.1001
▁board	-10.1013
chan	-10.1014
▁Gra	-10.1032
▁Di	-10.1036
▁ear	-10.1042
back	-10.1048
▁downvote	-10.1054
▁solve	-10.1061
▁matters	-10.1082
▁programmer	-10.1089
▁absurd	-10.1094
▁achieve	-10.1094
▁campaign	-10.1094
▁license	-10.1094
▁Canada	-10.1094
▁earlier	-10.1094
▁green	-10.1095
▁intellectual	-10.1096
▁spending	-10.11
▁cook	-10.11
▁suddenly	-10.1101
▁Still	-10.1106
ST	-10.1107
▁rant	-10.1108
▁tired	-10.1113
▁round	-10.112
57	-10.1122
roll	-10.1126
▁Holy	-10.1132
▁suit	-10.1146
▁exception	-10.1147
user	-10.1153
▁engineer	-10.1165
▁cu	-10.1171
Ma	-10.1176
cons	-10.1177
cle	-10.1189
rry	-10.1189
▁seconds	-10.1191
▁el	-10.1196
real	-10.1199
▁plant	-10.1201
▁screw	-10.1203
▁1)	-10.1203
▁port	-10.1204
▁interests	-10.1213
vid	-10.1214
▁expected	-10.1214
force	-10.1219
▁fill	-10.1219
low	-10.1223
▁Isn	-10.1238
▁lay	-10.1239
▁application	-10.1242
▁guarantee	-10.1246
▁female	-10.1246
▁client	-10.1246
▁blah	-10.1246
▁saving	-10.1246
▁network	-10.1246
▁season	-10.1246
▁trick	-10.1247
▁medical	-10.1251
page	-10.1252
▁income	-10.1252
▁lens	-10.1252
▁capable	-10.1254
▁default	-10.1254
▁Too	-10.1254
▁poll	-10.1273
▁deny	-10.1274
68	-10.1278
▁lu	-10.1279
▁gotta	-10.1279
▁grade	-10.1286
ref	-10.1286
▁va	-10.1291
cha	-10.1296
▁Hi	-10.1297
▁holding	-10.1299
96	-10.1299
▁balls	-10.1317
▁accident	-10.1326
▁$1	-10.1327
We	-10.1329
iva	-10.1334
▁station	-10.1335
despite	-10.1343
▁surprise	-10.1356
▁destroy	-10.1356
▁relative	-10.1371
▁meme	-10.1396
▁moved	-10.1397
▁request	-10.1399
▁candidate	-10.1399
▁challenge	-10.1399
▁explanation	-10.1399
▁structure	-10.1399
▁suicide	-10.1399
▁smell	-10.1399
rant	-10.14
▁Black	-10.1401
▁fool	-10.1402
▁minute	-10.1403
▁platform	-10.1407
▁recognize	-10.1407
▁Time	-10.1414
▁relationships	-10.1417
▁info	-10.142
▁groups	-10.1436
▁map	-10.1448
▁treated	-10.145
rick	-10.1464
hand	-10.1471
media	-10.1488
That	-10.1498
▁gods	-10.1501
▁Again	-10.1512
▁wage	-10.1514
based	-10.1515
***	-10.1534
65	-10.1534
iving	-10.1538
▁rep	-10.154
▁pictures	-10.154
▁16	-10.154
▁choices	-10.1548
▁Big	-10.1549
▁older	-10.1549
ina	-10.1554
▁beautiful	-10.1556
▁balance	-10.1556
▁zero	-10.1556
▁Very	-10.1556
▁douche	-10.1556
▁perform	-10.1556
▁everybody	-10.1559
are	-10.1561
▁Buddhist	-10.1561
▁immediately	-10.1562
▁string	-10.1563
▁loan	-10.1563
▁Nor	-10.1566
▁window	-10.1578
▁ME	-10.1579
▁net	-10.1582
▁downvoted	-10.1602
▁faster	-10.1602
▁path	-10.1612
000	-10.162
LY	-10.1621
De	-10.1624
▁useless	-10.1627
21	-10.1633
gar	-10.1635
▁stone	-10.1635
▁Star	-10.1646
▁discuss	-10.1648
index	-10.1654
▁weak	-10.1657
▁ring	-10.1664
▁describe	-10.167
▁affect	-10.1671
ari	-10.1671
rc	-10.1673
49	-10.1673
▁ahead	-10.1677
▁regular	-10.1691
▁watched	-10.17
▁nut	-10.1704
rain	-10.1708
▁spec	-10.171
▁benefits	-10.171
hood	-10.1714
▁leaving	-10.1714
▁caught	-10.1714
▁conspiracy	-10.1714
▁federal	-10.1714
▁match	-10.1715
▁Although	-10.1715
▁task	-10.1715
▁shape	-10.1715
▁copyright	-10.1716
▁Other	-10.1718
▁helped	-10.1721
▁sake	-10.1722
▁Mon	-10.1723
▁acceptable	-10.1731
win	-10.1736
▁options	-10.1743
▁named	-10.1743
▁pan	-10.1748
▁standing	-10.1751
86	-10.1773
▁citizens	-10.1776
▁pla	-10.1779
▁cards	-10.1782
more	-10.1783
search	-10.1808
▁suffer	-10.1819
▁success	-10.1821
How	-10.1824
▁2)	-10.1825
ification	-10.185
▁mon	-10.1855
▁fra	-10.1858
▁25	-10.1863
TS	-10.1867
ose	-10.1869
story	-10.187
▁Microsoft	-10.1876
▁advantage	-10.1876
▁communism	-10.1876
▁democracy	-10.1876
▁episode	-10.1876
▁scream	-10.1876
▁Africa	-10.1876
▁racist	-10.1876
▁revolution	-10.1876
▁morning	-10.1876
▁password	-10.1876
▁consistent	-10.1877
▁master	-10.188
▁Should	-10.188
▁John	-10.1885
▁Bible	-10.1888
▁bra	-10.1895
▁somewhat	-10.1898
▁OF	-10.1898
Do	-10.1902
inal	-10.1912
gr	-10.1914
post	-10.1917
▁Christ	-10.1939
▁released	-10.1949
▁sat	-10.1954
▁boy	-10.1966
")	-10.1967
top	-10.1969
▁drinking	-10.1975
▁union	-10.1992
▁tab	-10.1995
So	-10.1999
ace	-10.201
▁broke	-10.2028
And	-10.2038
amazon	-10.2039
▁hilarious	-10.204
▁scenario	-10.204
▁traffic	-10.204
▁offensive	-10.204
▁Japanese	-10.204
▁Linus	-10.204
▁activity	-10.204
▁loud	-10.2041
▁cancer	-10.2042
▁sitting	-10.2044
▁100%	-10.2045
▁BE	-10.2047
▁brand	-10.2048
OS	-10.2049
▁plants	-10.2057
▁poster	-10.2064
▁parent	-10.2067
▁inflation	-10.2074
55	-10.2078
▁teaching	-10.2087
▁pissed	-10.2091
row	-10.2092
▁Dell	-10.2097
▁wonderful	-10.2101
▁USA	-10.2105
02	-10.2116
hole	-10.2136
39	-10.2141
▁growing	-10.2145
▁Ju	-10.2154
76	-10.2178
▁soul	-10.2181
▁employees	-10.2186
36	-10.2186
▁starts	-10.2191
▁recent	-10.2195
!)	-10.2197
▁bug	-10.2201
▁Instead	-10.2206
▁accomplish	-10.2206
▁commercial	-10.2206
▁terrible	-10.2206
▁changing	-10.2206
▁True	-10.2206
▁sister	-10.2206
▁convert	-10.2207
▁Plus	-10.2207
▁Nothing	-10.2207
▁solid	-10.2208
▁habit	-10.2208
▁House	-10.2208
▁prepar	-10.2209
▁package	-10.2209
▁hero	-10.2209
▁development	-10.2209
▁background	-10.221
▁shall	-10.221
▁bacon	-10.2212
▁Someone	-10.2212
▁progress	-10.2213
▁relevant	-10.2216
▁assertion	-10.2217
▁Cheney	-10.222
▁condition	-10.2234
▁names	-10.2234
your	-10.2236
98	-10.2236
▁mi	-10.224
▁proven	-10.2244
0%	-10.2247
▁careful	-10.2259
▁member	-10.2259
▁pu	-10.2261
ko	-10.2274
▁skin	-10.2276
▁State	-10.2281
▁leader	-10.2282
edit	-10.2302
vol	-10.2305
while	-10.2313
▁effects	-10.2316
UN	-10.2318
God	-10.2342
mil	-10.2344
38	-10.2344
bra	-10.235
▁alive	-10.2357
▁ski	-10.2358
gree	-10.2363
▁McCain	-10.2376
▁vehicle	-10.2376
▁Second	-10.2376
▁appoint	-10.2376
▁Jews	-10.2376
▁insane	-10.2378
▁truck	-10.2378
▁capitalism	-10.2379
▁Two	-10.238
▁boot	-10.2381
▁proud	-10.2381
▁Except	-10.2382
▁anybody	-10.2384
▁connect	-10.2386
▁morality	-10.2387
▁Free	-10.2388
▁connection	-10.2389
▁showing	-10.2414
ez	-10.2416
▁below	-10.2432
there	-10.2441
▁bat	-10.2445
▁idiots	-10.2445
▁justice	-10.2448
place	-10.2454
▁banks	-10.2455
▁14	-10.2466
▁pen	-10.2473
▁draw	-10.248
▁heat	-10.2482
power	-10.249
most	-10.2505
uring	-10.2509
▁harder	-10.252
▁MA	-10.252
▁refuse	-10.2527
▁threat	-10.2529
bin	-10.2529
bert	-10.2531
cul	-10.2537
term	-10.2541
▁policies	-10.2548
▁principle	-10.2548
▁silver	-10.2548
▁glass	-10.2548
▁shift	-10.2548
▁pig	-10.2548
▁Islam	-10.2549
▁israel	-10.2549
▁barely	-10.255
▁utter	-10.255
▁pic	-10.2556
▁reaction	-10.2556
▁professional	-10.2558
▁wo	-10.2558
▁sir	-10.2562
DE	-10.2564
▁attacks	-10.2571
▁submit	-10.2572
▁belong	-10.2575
▁center	-10.2576
85	-10.2576
89	-10.2602
▁caus	-10.261
bots	-10.2623
▁views	-10.2627
HA	-10.2634
44	-10.2637
▁seemed	-10.2651
▁sun	-10.2664
with	-10.267
point	-10.2674
pen	-10.2683
▁symbol	-10.2708
▁greater	-10.2713
▁electric	-10.272
▁para	-10.2721
0,000	-10.2722
▁Haskell	-10.2724
▁advocate	-10.2724
▁pedophilia	-10.2724
▁monitor	-10.2724
▁scheme	-10.2724
▁Think	-10.2724
/2008/	-10.2725
▁depends	-10.2726
▁chicken	-10.2729
▁investment	-10.2731
47	-10.2731
wing	-10.2737
▁Ya	-10.2739
very	-10.2741
▁scale	-10.2742
han	-10.2744
▁daily	-10.2744
vision	-10.2751
any	-10.2761
▁healthy	-10.2762
▁cheaper	-10.2767
▁sur	-10.277
▁HD	-10.277
▁den	-10.277
unch	-10.2777
▁supporting	-10.2784
%2	-10.2793
▁hearing	-10.28
▁demo	-10.2803
▁students	-10.2804
▁designed	-10.2822
▁trolling	-10.2828
▁appears	-10.2835
elect	-10.2839
pan	-10.2843
pic	-10.2848
box	-10.2848
▁ban	-10.2848
non	-10.2869
▁examples	-10.2875
ought	-10.2881
ject	-10.289
▁Apparently	-10.2902
▁operation	-10.2902
▁creating	-10.2902
▁predict	-10.2902
▁Pre	-10.2903
▁repeat	-10.2903
▁hook	-10.2904
▁computers	-10.2904
▁gene	-10.2905
▁border	-10.2905
ann	-10.2911
46	-10.2912
▁manner	-10.2914
▁cock	-10.2916
▁flag	-10.2917
▁calls	-10.2922
▁camp	-10.2933
▁Dude	-10.2935
AD	-10.2962
lish	-10.2968
change	-10.297
▁reasoning	-10.2977
35	-10.2984
▁ready	-10.2989
▁button	-10.3
▁ill	-10.3011
▁tons	-10.3014
related	-10.3022
phone	-10.303
▁spell	-10.303
▁miles	-10.3032
▁cho	-10.3034
▁peace	-10.3036
TA	-10.3038
▁lies	-10.3052
▁provided	-10.3058
▁birth	-10.3084
▁compromise	-10.3084
▁experiment	-10.3084
▁clue	-10.3084
▁moving	-10.3084
▁humor	-10.3084
Especially	-10.3084
▁automatically	-10.3085
gy	-10.3092
▁wow	-10.3093
▁grand	-10.3096
▁Same	-10.3104
▁humanity	-10.3111
▁shirt	-10.3115
▁movies	-10.3118
▁values	-10.3121
▁corner	-10.3125
▁flying	-10.3126
▁wondering	-10.3126
▁suggestion	-10.313
CK	-10.3132
▁developers	-10.3136
▁Republican	-10.3148
▁claiming	-10.3165
▁dev	-10.3175
▁En	-10.318
▁Ri	-10.3182
▁ended	-10.3188
▁dig	-10.3191
gun	-10.3199
world	-10.3207
▁picked	-10.3223
▁languages	-10.326
▁player	-10.3263
▁chose	-10.3269
▁Lebanon	-10.3269
▁lazy	-10.3269
▁taught	-10.3269
▁Could	-10.3269
▁THIS	-10.327
▁interview	-10.3271
▁terrorism	-10.3271
▁minority	-10.3272
▁Both	-10.3277
▁awful	-10.3277
see	-10.3278
▁requires	-10.328
▁bound	-10.3284
▁individuals	-10.3288
90	-10.3303
▁tu	-10.3305
▁rap	-10.3305
▁warming	-10.3327
▁defined	-10.3327
▁acts	-10.3334
They	-10.3341
53	-10.3343
▁politicians	-10.3348
▁smaller	-10.3355
▁increased	-10.3363
▁Red	-10.337
▁static	-10.3383
belief	-10.3396
atheism	-10.3396
▁forces	-10.3398
▁steal	-10.3401
▁comm	-10.3402
think	-10.3404
▁replace	-10.3416
▁wind	-10.3424
▁q	-10.3428
qua	-10.3431
▁improve	-10.3453
pu	-10.3454
▁Interesting	-10.3458
▁audience	-10.3458
▁determine	-10.3458
▁nonsense	-10.3458
▁yesterday	-10.3458
▁Obviously	-10.3458
▁gender	-10.3458
▁sweet	-10.3458
▁comparison	-10.3458
▁boyfriend	-10.3458
▁Arab	-10.3458
▁central	-10.3459
▁Democrats	-10.3459
▁hoping	-10.346
▁plus	-10.3462
lip	-10.3463
▁World	-10.3466
UT	-10.3466
▁violent	-10.3473
▁helpful	-10.3473
▁stage	-10.3475
▁Dis	-10.3479
▁adults	-10.3493
ava	-10.3499
▁India	-10.3501
▁critical	-10.3502
▁warm	-10.351
▁host	-10.3515
/200	-10.3523
▁pieces	-10.3544
▁feet	-10.3547
ong	-10.3549
cious	-10.3557
▁DS	-10.3559
▁ice	-10.3563
▁mode	-10.3567
mission	-10.357
mag	-10.3577
77	-10.358
ik	-10.3592
▁supported	-10.3607
▁bash	-10.361
▁capital	-10.3615
▁weapons	-10.362
▁videos	-10.3633
▁ruin	-10.364
▁raise	-10.3641
;&	-10.3644
▁Europe	-10.3645
▁exploit	-10.365
▁operating	-10.365
▁threw	-10.365
▁karma	-10.365
▁physics	-10.365
flickr	-10.365
▁promote	-10.365
▁doctor	-10.3651
▁south	-10.3651
▁dying	-10.3651
▁:-)	-10.3651
▁Check	-10.3652
▁submitted	-10.3652
▁UN	-10.3652
▁everywhere	-10.3653
▁comfortable	-10.3654
▁universal	-10.3658
level	-10.3659
▁dogma	-10.3664
▁Read	-10.3666
▁letters	-10.3674
▁lying	-10.3676
▁Iowa	-10.3679
ham	-10.3687
life	-10.3699
cast	-10.3705
yes	-10.3705
59	-10.3708
300	-10.372
▁armed	-10.3723
42	-10.3727
▁Bar	-10.3741
ima	-10.3741
▁respond	-10.3745
hot	-10.375
▁correctly	-10.3752
▁Best	-10.3768
ept	-10.3778
▁continu	-10.3779
41	-10.3783
▁accepted	-10.3801
Be	-10.3808
▁disc	-10.3819
▁incredibl	-10.3825
▁final	-10.3826
▁scientists	-10.3828
▁schools	-10.383
▁leaders	-10.3831
count	-10.3836
▁van	-10.3836
▁PS	-10.3845
▁collapse	-10.3846
▁conflict	-10.3846
▁engage	-10.3846
▁familiar	-10.3846
▁opportunity	-10.3846
▁possibility	-10.3846
▁impact	-10.3846
▁independent	-10.3846
▁giant	-10.3847
▁bastard	-10.3847
▁ethanol	-10.3847
▁Being	-10.3847
▁pressure	-10.3849
▁Apple	-10.385
▁hunt	-10.385
▁bullet	-10.3852
▁trial	-10.3853
▁North	-10.3855
▁Though	-10.3855
▁laid	-10.3858
who	-10.3858
▁corporations	-10.386
▁fell	-10.3869
▁Che	-10.3869
▁closed	-10.3872
ken	-10.3874
▁Give	-10.3876
▁park	-10.3878
aries	-10.3883
▁properly	-10.3883
lly	-10.3889
▁stable	-10.3892
45	-10.3896
▁cla	-10.3913
CH	-10.3917
▁ju	-10.392
▁teach	-10.392
▁hundreds	-10.3923
put	-10.3925
▁projects	-10.3927
▁linked	-10.393
▁makeup	-10.393
▁Atheist	-10.3945
▁included	-10.3947
ju	-10.395
▁walking	-10.3952
really	-10.3966
▁unit	-10.3974
▁workers	-10.3978
▁pin	-10.3979
▁images	-10.398
hack	-10.398
house	-10.3985
▁justify	-10.3992
There	-10.3994
▁reduce	-10.4032
▁opt	-10.4036
▁areas	-10.4046
▁George	-10.4046
▁exercise	-10.4046
▁communist	-10.4046
▁cultural	-10.4046
▁detect	-10.4046
▁attitude	-10.4046
▁downmodded	-10.4046
▁outrage	-10.4047
▁kidding	-10.4047
Oh	-10.4055
▁frame	-10.4056
▁Never	-10.4059
▁expression	-10.4061
state	-10.4065
▁visual	-10.4066
▁TH	-10.4069
▁services	-10.407
▁nuts	-10.4072
▁digg	-10.4087
dies	-10.4088
▁graphic	-10.4088
mate	-10.4092
foo	-10.4097
▁Use	-10.4099
▁XP	-10.4105
▁cent	-10.4108
▁suffering	-10.4118
word	-10.4121
give	-10.4124
▁Mc	-10.4131
▁thousand	-10.4145
1)	-10.4149
▁Act	-10.4151
▁mor	-10.4156
SH	-10.4161
▁seek	-10.4165
▁installed	-10.417
wo	-10.4179
~	-10.4183
34	-10.4186
product	-10.4186
feature	-10.4189
science	-10.4189
▁Men	-10.4189
/1	-10.4197
▁tools	-10.4207
AP	-10.4217
▁players	-10.4224
▁char	-10.4234
ular	-10.4238
▁interpret	-10.4239
common	-10.425
▁genuine	-10.425
▁philosophy	-10.425
▁primary	-10.425
▁regulation	-10.425
▁century	-10.425
▁Tesla	-10.425
▁clever	-10.425
▁Smith	-10.425
▁absence	-10.425
▁circle	-10.4251
▁distance	-10.4251
▁deliver	-10.4251
▁interface	-10.4251
▁channel	-10.4251
▁York	-10.4251
▁username	-10.4252
▁clothes	-10.4252
▁tip	-10.4253
ooo	-10.4254
▁losing	-10.4254
▁applications	-10.4255
▁accus	-10.4256
▁root	-10.4256
ological	-10.4262
▁partner	-10.4263
sexual	-10.4263
▁mar	-10.4266
▁warranty	-10.4266
▁leads	-10.4272
▁Stop	-10.4272
arian	-10.4282
▁rent	-10.4284
▁par	-10.4287
▁table	-10.4289
03	-10.4303
▁Mu	-10.431
photos	-10.4311
▁~	-10.4318
▁RE	-10.4319
▁Ja	-10.4326
▁tiny	-10.4334
▁shown	-10.4349
▁earn	-10.4351
▁May	-10.4352
▁toward	-10.4358
ov	-10.4361
▁yo	-10.4363
iness	-10.4366
▁apart	-10.4392
▁mail	-10.4395
content	-10.4397
▁covered	-10.44
good	-10.44
▁Bas	-10.44
check	-10.4403
▁flaw	-10.4418
pper	-10.4424
bel	-10.443
▁Wi	-10.4433
66	-10.4437
▁observ	-10.4445
ager	-10.445
▁compare	-10.4452
▁usual	-10.4455
▁Awesome	-10.4459
▁Exactly	-10.4459
▁ourselves	-10.4459
▁welcome	-10.4459
▁Next	-10.4459
▁array	-10.4459
▁attacked	-10.446
▁Scientology	-10.446
▁alien	-10.4462
▁pants	-10.4464
▁reject	-10.4465
pdf	-10.4467
▁constantly	-10.4475
▁cute	-10.4477
burg	-10.4486
relatively	-10.4498
▁lucky	-10.4504
▁Uh	-10.453
▁existing	-10.4537
▁cast	-10.4538
▁ST	-10.4542
▁closer	-10.4547
▁legally	-10.4549
▁larger	-10.4551
lk	-10.4554
now	-10.456
gl	-10.456
▁rates	-10.4564
▁student	-10.4575
hat	-10.4586
dp	-10.459
▁listening	-10.4598
turn	-10.4617
type	-10.462
▁charges	-10.4621
▁feed	-10.4623
▁label	-10.4629
ruct	-10.4641
een	-10.4648
▁significant	-10.4649
▁lame	-10.4661
live	-10.4666
▁Frank	-10.4668
▁Chinese	-10.4671
▁Vilsack	-10.4671
▁exclusive	-10.4671
▁===	-10.4672
▁innocent	-10.4672
▁swear	-10.4672
▁radio	-10.4672
▁Something	-10.4672
▁firm	-10.4672
▁exchange	-10.4673
ater	-10.4674
▁sky	-10.4675
▁Under	-10.4677
▁subscribe	-10.4679
▁egg	-10.468
▁YOUR	-10.4682
▁magazine	-10.4684
mark	-10.4685
▁stance	-10.4688
▁fashion	-10.4692
▁technically	-10.4693
▁cry	-10.4699
▁Nope	-10.4719
79	-10.4722
▁statements	-10.4733
Con	-10.4735
verything	-10.475
▁errors	-10.4759
▁multi	-10.4775
▁Ru	-10.4779
chi	-10.4783
▁owner	-10.4791
▁politician	-10.4797
▁emotional	-10.4799
▁farming	-10.4804
▁moo	-10.4813
/3	-10.4831
vin	-10.4835
▁rec	-10.4836
▁quo	-10.4837
▁adopt	-10.4846
▁struggle	-10.4857
▁Sun	-10.4858
▁flat	-10.4882
▁News	-10.4887
▁Washington	-10.4889
▁confirm	-10.4889
▁recession	-10.4889
▁Canadian	-10.4889
▁crowd	-10.4889
▁digital	-10.4889
▁labor	-10.4889
▁prosecut	-10.4889
▁series	-10.4889
▁appeal	-10.4889
▁crappy	-10.4889
▁retire	-10.4889
▁agency	-10.4889
▁Santa	-10.4891
▁ironic	-10.4892
▁committed	-10.4892
▁tight	-10.4892
▁feelings	-10.4895
▁stated	-10.4896
▁objective	-10.4897
▁management	-10.4898
▁Tell	-10.4901
▁upmod	-10.4902
▁unfortunately	-10.4902
▁hitting	-10.4905
▁GE	-10.4909
▁piracy	-10.491
▁Opera	-10.4913
ike	-10.4915
gay	-10.4915
▁thrown	-10.4925
east	-10.4928
▁breaking	-10.4929
▁pack	-10.4933
▁mal	-10.4936
▁overall	-10.4937
▁tracks	-10.494
ional	-10.4948
▁traditional	-10.4949
▁downmod	-10.4952
ane	-10.4953
▁hack	-10.4964
▁ought	-10.4965
know	-10.4967
▁pun	-10.4969
▁hey	-10.4972
vote	-10.4978
▁strip	-10.4984
template	-10.4994
▁myth	-10.4999
▁meeting	-10.5009
bug	-10.5013
uous	-10.5018
81	-10.5019
▁hundred	-10.5024
▁Republicans	-10.5039
gin	-10.5046
Christian	-10.5049
direct	-10.5049
look	-10.5054
god	-10.5057
▁pray	-10.5062
▁fu	-10.5064
▁temp	-10.5068
▁figured	-10.5071
Without	-10.5076
91	-10.5078
▁technical	-10.5088
▁decades	-10.5091
▁quit	-10.5093
▁falling	-10.5094
▁absolute	-10.5099
▁Probably	-10.5111
▁families	-10.5111
▁heavy	-10.5111
▁White	-10.5111
▁bottle	-10.5111
▁crisis	-10.5111
▁French	-10.5111
▁enemy	-10.5111
▁lady	-10.5111
▁reveal	-10.5111
▁imply	-10.5112
▁Work	-10.5112
▁Digg	-10.5113
▁ticket	-10.5114
▁progressive	-10.5116
face	-10.5117
▁treatment	-10.5119
▁huh	-10.5128
ball	-10.5131
▁rarely	-10.5131
▁rub	-10.5132
▁intended	-10.5132
▁hardly	-10.5135
▁70	-10.514
▁Sub	-10.514
▁CAN	-10.5143
▁functions	-10.5143
▁rise	-10.5153
▁usage	-10.5156
▁scared	-10.5157
▁agreement	-10.517
▁cable	-10.5172
iate	-10.5178
ium	-10.5183
▁Tom	-10.5191
▁Up	-10.5199
▁removed	-10.5204
▁demonstrate	-10.5208
web	-10.5215
▁HE	-10.5216
▁Ke	-10.5217
body	-10.5224
eth	-10.5234
▁UP	-10.5234
▁events	-10.5241
▁1000	-10.5245
▁trans	-10.5255
78	-10.5257
▁civilians	-10.5268
@	-10.5275
path	-10.5277
▁seat	-10.529
▁receive	-10.5294
▁conditions	-10.5301
rl	-10.5308
▁boys	-10.5316
bout	-10.5326
▁fap	-10.5337
▁Saddam	-10.5338
▁celebrate	-10.5338
▁expense	-10.5338
▁library	-10.5338
▁mirror	-10.5338
▁pattern	-10.5338
▁pedophile	-10.5338
▁Jewish	-10.5338
▁minimum	-10.5338
▁Depend	-10.5338
▁Japan	-10.5339
▁incident	-10.5339
▁database	-10.5339
▁Basically	-10.5339
▁yell	-10.5339
▁Okay	-10.534
ggle	-10.5342
▁marry	-10.5342
▁stopping	-10.5345
▁hide	-10.5346
▁pair	-10.5348
▁Rick	-10.5349
▁grant	-10.5349
▁legitimate	-10.5351
▁Down	-10.5352
▁Bra	-10.5354
▁bigot	-10.536
▁survive	-10.5362
▁active	-10.5366
▁tech	-10.5378
▁developed	-10.5378
▁terrorists	-10.5386
To	-10.5386
▁notion	-10.5389
▁complain	-10.5396
▁cancel	-10.5401
▁east	-10.5404
▁$20	-10.5405
▁believed	-10.541
▁strongly	-10.5411
▁mistakes	-10.5411
though	-10.5418
▁Say	-10.5419
gov	-10.542
▁Ki	-10.5426
▁DE	-10.5435
ough	-10.5436
▁remind	-10.545
ama	-10.545
exist	-10.5469
▁custom	-10.5473
▁Hmm	-10.5473
etic	-10.5474
▁Sup	-10.5478
▁Um	-10.5484
▁detail	-10.5494
▁funds	-10.5502
48	-10.5505
▁ride	-10.5511
▁dress	-10.5527
▁badly	-10.553
▁writer	-10.5533
▁$10	-10.5546
▁German	-10.555
▁collect	-10.5562
▁external	-10.5571
▁increasing	-10.5571
▁worship	-10.5571
▁filter	-10.5571
▁superior	-10.5571
▁floor	-10.5571
▁geek	-10.5571
▁location	-10.5571
▁loving	-10.5571
▁club	-10.5571
▁jerk	-10.5571
▁pirate	-10.5571
▁fraud	-10.5573
▁Open	-10.5574
▁guard	-10.5574
▁East	-10.5575
▁riot	-10.5575
got	-10.5576
▁80	-10.5578
▁NSFW	-10.5579
citation	-10.558
▁flight	-10.558
▁Last	-10.5582
___	-10.5583
▁analysis	-10.5583
▁abstraction	-10.5584
insert	-10.5584
lib	-10.5588
▁manual	-10.559
extremely	-10.5592
▁chain	-10.5593
▁elect	-10.5595
▁section	-10.5598
IL	-10.56
gh	-10.5601
▁marketing	-10.5605
▁Buy	-10.5607
▁crying	-10.5634
▁noise	-10.5642
each	-10.5644
▁apple	-10.5651
▁ignored	-10.5653
▁arrested	-10.5662
93	-10.5664
51	-10.5671
▁Su	-10.5686
▁$100	-10.5693
▁West	-10.5701
▁artist	-10.5702
make	-10.5703
▁Palestinians	-10.5704
▁crimes	-10.5713
tries	-10.5714
hold	-10.5723
2)	-10.5741
hhh	-10.5741
^	-10.5746
|	-10.5747
94	-10.5752
▁Note	-10.5757
▁magic	-10.5759
▁ON	-10.5768
hoo	-10.5785
ifying	-10.5785
cies	-10.5789
▁21	-10.5792
▁assert	-10.5797
▁tag	-10.5806
82	-10.5808
▁disappear	-10.5809
▁efficient	-10.5809
▁succeed	-10.5809
▁Texas	-10.5809
▁Hitler	-10.5809
▁disease	-10.5809
▁strike	-10.5809
▁babies	-10.5809
▁agenda	-10.5809
▁Agreed	-10.5809
▁expert	-10.5809
▁naked	-10.5809
▁empty	-10.5809
▁infinite	-10.5809
▁douchebag	-10.5809
▁Otherwise	-10.5809
▁High	-10.5809
!!!!	-10.581
▁internal	-10.581
▁escape	-10.581
▁checkpoint	-10.5811
▁Yep	-10.5812
nik	-10.5812
▁grew	-10.5812
▁dump	-10.5813
▁core	-10.5814
▁guilty	-10.5817
▁Iran	-10.5817
▁pool	-10.5821
▁expecting	-10.5821
▁fish	-10.5825
▁bible	-10.5829
▁redditors	-10.5832
ntil	-10.5834
▁objects	-10.5843
\_	-10.5866
▁Pe	-10.587
▁Day	-10.5871
▁former	-10.5873
card	-10.5874
▁naturally	-10.5883
cat	-10.5887
▁raised	-10.5891
▁charged	-10.5904
72	-10.5914
blo	-10.5921
PS	-10.5943
▁saved	-10.5952
▁produced	-10.5957
▁Win	-10.598
value	-10.5995
▁pics	-10.6002
▁metal	-10.6005
▁developer	-10.6006
job	-10.6024
▁IDE	-10.6034
▁Russia	-10.6049
▁prior	-10.6049
▁slave	-10.6051
▁dismiss	-10.6053
é	-10.6053
▁Church	-10.6053
▁complicated	-10.6053
▁estimate	-10.6053
▁identify	-10.6053
▁intelligence	-10.6053
▁responsibility	-10.6053
▁strength	-10.6053
▁wheel	-10.6053
▁Pretty	-10.6053
▁competition	-10.6053
▁console	-10.6053
▁monkey	-10.6054
▁dozen	-10.6054
▁plot	-10.6054
▁severe	-10.6054
▁Life	-10.6055
▁straw	-10.6055
▁criticism	-10.6055
▁terminal	-10.6055
▁guide	-10.6056
UTF	-10.6057
▁clip	-10.6058
▁safety	-10.606
▁wine	-10.6062
▁route	-10.6062
▁corruption	-10.6062
MP	-10.6066
▁trait	-10.6067
▁grammar	-10.6068
▁reward	-10.607
gged	-10.607
self	-10.6075
▁WE	-10.6079
▁60	-10.608
▁wood	-10.6082
▁warning	-10.6091
▁letting	-10.6091
▁cite	-10.6096
pid	-10.6098
order	-10.6104
▁wing	-10.6107
▁forums	-10.6113
ica	-10.6115
ypic	-10.6116
▁pet	-10.6121
tig	-10.6122
▁filled	-10.6124
cular	-10.6131
▁teen	-10.6131
▁norm	-10.6153
Ha	-10.6156
len	-10.6159
only	-10.6162
▁develop	-10.6176
▁Web	-10.6176
serving	-10.618
▁dealing	-10.6182
▁wire	-10.6188
oon	-10.619
67	-10.6212
▁laughing	-10.6226
img	-10.623
/4	-10.6244
▁advance	-10.6259
eems	-10.6264
▁bugs	-10.6267
why	-10.6268
▁compile	-10.6277
▁te	-10.6291
▁constitution	-10.6293
love	-10.63
▁select	-10.6301
▁reflect	-10.6303
}	-10.6303
▁Kucinich	-10.6303
▁Pentagon	-10.6303
▁communicate	-10.6303
▁husband	-10.6303
▁sympath	-10.6303
▁battery	-10.6303
▁irrelevant	-10.6303
▁excess	-10.6303
▁unique	-10.6303
▁BTW	-10.6303
▁DRM	-10.6303
▁lawsuit	-10.6303
▁reliable	-10.6303
▁horse	-10.6303
▁smile	-10.6303
▁Constitution	-10.6304
▁Remember	-10.6304
▁region	-10.6304
▁attach	-10.6304
▁IMO	-10.6304
▁understood	-10.6305
▁viewpoint	-10.6305
▁wanna	-10.6305
▁Bi	-10.6307
▁Nobody	-10.6309
▁latest	-10.631
▁Art	-10.6313
▁interpretation	-10.6317
▁dust	-10.6319
▁chosen	-10.632
▁minor	-10.6321
▁Hard	-10.6323
▁bind	-10.6324
▁established	-10.6325
empt	-10.6326
fun	-10.633
▁dictionary	-10.6332
▁american	-10.6334
▁offended	-10.6336
corp	-10.6347
▁received	-10.6352
lang	-10.6355
▁equally	-10.6362
▁Real	-10.6364
▁Call	-10.6369
▁mid	-10.6373
▁logo	-10.6379
▁summ	-10.6384
controlled	-10.6386
▁eh	-10.6414
NT	-10.6428
▁upvoted	-10.6432
▁Lu	-10.6437
▁youtube	-10.6455
▁Come	-10.6471
▁paint	-10.6477
case	-10.6483
▁tradition	-10.6489
public	-10.6496
▁fly	-10.6498
▁format	-10.6499
space	-10.6499
human	-10.6504
▁pit	-10.6515
▁publish	-10.6516
fact	-10.6516
▁surely	-10.6527
But	-10.6535
ura	-10.6549
▁Had	-10.6555
Here	-10.6559
▁broad	-10.6559
▁Honestly	-10.6559
▁congress	-10.6559
▁description	-10.6559
▁judgment	-10.6559
▁prohibit	-10.6559
▁university	-10.6559
▁vegetarian	-10.6559
▁dunno	-10.6559
▁typing	-10.6559
▁ensure	-10.656
▁Trek	-10.656
▁ugly	-10.656
▁historical	-10.656
▁wtf	-10.656
▁Old	-10.656
▁Keep	-10.656
▁Talk	-10.6561
▁tank	-10.6561
▁beef	-10.6562
▁representative	-10.6562
▁punishment	-10.6563
▁settle	-10.6565
Mo	-10.6566
▁Marx	-10.6568
▁GOP	-10.6568
▁pile	-10.6569
▁Change	-10.6575
▁signed	-10.6576
▁scary	-10.6578
hom	-10.6579
▁incorrect	-10.6582
▁mistaken	-10.6583
ific	-10.6587
▁uh	-10.6589
loc	-10.6594
▁cycle	-10.6601
▁200	-10.6613
▁supporters	-10.6622
▁^	-10.6627
▁described	-10.6632
new	-10.6639
▁Mad	-10.664
▁guessing	-10.664
▁spelling	-10.6641
▁details	-10.6645
run	-10.665
2008	-10.6651
▁Cap	-10.6656
▁OP	-10.666
phy	-10.6672
▁fee	-10.6673
▁poorly	-10.6674
teen	-10.6681
ssociated	-10.669
asp	-10.6718
iff	-10.6733
▁Haha	-10.674
▁cheat	-10.6743
EL	-10.6753
▁era	-10.6756
▁compar	-10.6756
cover	-10.6759
▁Indian	-10.6764
▁beating	-10.6764
forum	-10.6775
▁typical	-10.68
▁warrant	-10.6806
▁threaten	-10.6809
▁Love	-10.6817
▁BS	-10.6817
▁Republic	-10.6819
According	-10.6822
▁British	-10.6823
▁California	-10.6823
▁School	-10.6823
▁brilliant	-10.6823
▁currency	-10.6823
▁encounter	-10.6823
▁extension	-10.6823
▁mortgage	-10.6823
▁plural	-10.6823
▁propaganda	-10.6823
▁WoW	-10.6823
▁defect	-10.6823
▁fresh	-10.6823
▁operate	-10.6823
▁Power	-10.6823
▁surround	-10.6823
▁wild	-10.6823
▁University	-10.6824
▁horr	-10.6824
▁recall	-10.6824
Before	-10.6825
▁propose	-10.6825
▁distinction	-10.6825
▁neck	-10.6825
▁2007	-10.6827
▁Human	-10.6828
▁besides	-10.6829
400	-10.6829
shit	-10.6829
▁loop	-10.683
▁toilet	-10.6831
▁mainstream	-10.6832
▁dirty	-10.6833
▁upset	-10.6834
▁eight	-10.6835
▁Game	-10.6836
▁portion	-10.6837
▁Cool	-10.6839
▁observation	-10.6841
▁Yo	-10.6842
▁NY	-10.6845
▁typically	-10.6845
▁Muslims	-10.685
▁protection	-10.685
▁churches	-10.6858
modding	-10.6858
83	-10.687
▁rob	-10.6881
▁forum	-10.6883
▁sheep	-10.6884
▁locked	-10.6902
▁reminds	-10.6913
minate	-10.6914
▁$2	-10.6925
▁tough	-10.6928
nie	-10.6931
version	-10.6934
▁input	-10.6945
▁24	-10.6951
Me	-10.6962
▁rank	-10.6965
je	-10.6972
▁sports	-10.6973
sigh	-10.6987
▁passing	-10.7005
▁addition	-10.7006
▁rip	-10.7023
▁GO	-10.7027
group	-10.7031
▁king	-10.7031
▁led	-10.7031
host	-10.7033
▁mate	-10.7043
▁promise	-10.7048
ku	-10.7054
▁crop	-10.7067
▁intent	-10.7068
▁17	-10.7074
▁Federal	-10.7093
▁Personally	-10.7093
▁abandon	-10.7093
▁agriculture	-10.7093
▁depression	-10.7093
▁impression	-10.7093
▁paragraph	-10.7093
▁strategy	-10.7093
▁micro	-10.7093
▁remote	-10.7093
▁ideology	-10.7093
▁soldiers	-10.7093
▁breath	-10.7093
▁incentive	-10.7093
▁Three	-10.7093
▁weather	-10.7093
▁budget	-10.7093
▁gaming	-10.7093
▁vague	-10.7094
▁goddamn	-10.7094
▁pawn	-10.7094
▁resolution	-10.7094
▁civilization	-10.7094
obama	-10.7095
▁entry	-10.7096
▁911	-10.7097
▁Peter	-10.7097
▁mock	-10.7098
▁Hav	-10.7099
▁salt	-10.7102
▁dislike	-10.7104
▁cutting	-10.7104
▁exam	-10.7107
▁bone	-10.7109
▁Fox	-10.711
▁Gold	-10.7112
▁Russian	-10.7114
▁exposed	-10.7114
tards	-10.7116
▁category	-10.7118
▁donate	-10.7121
▁Bob	-10.7131
▁finished	-10.7134
▁discovered	-10.7135
▁slowly	-10.7139
/10	-10.7153
ddy	-10.7158
about	-10.7164
▁meta	-10.7164
▁None	-10.7172
▁wikipedia	-10.7173
▁discussing	-10.7192
▁politically	-10.7196
Mar	-10.7204
circ	-10.7205
ji	-10.721
▁Super	-10.7213
person	-10.7215
My	-10.7217
▁cra	-10.7219
=2	-10.7224
ATE	-10.7228
▁cigarettes	-10.7239
ancy	-10.7248
mind	-10.7268
92	-10.728
verse	-10.7285
▁condemn	-10.7286
reason	-10.7309
▁damned	-10.7309
class	-10.7314
▁discover	-10.7331
▁split	-10.7337
phil	-10.7338
wide	-10.734
▁Muslim	-10.7341
▁mono	-10.7353
▁checked	-10.7362
▁addict	-10.7363
▁enlighten	-10.7371
▁stretch	-10.7371
joeclark	-10.7371
▁Government	-10.7371
▁advertising	-10.7371
▁artificial	-10.7371
▁circumstances	-10.7371
▁confusing	-10.7371
▁liberty	-10.7371
▁valuable	-10.7371
▁equation	-10.7371
▁famous	-10.7371
▁ancient	-10.7371
▁creation	-10.7371
▁Social	-10.7371
▁tongue	-10.7371
▁poison	-10.7371
▁applies	-10.7371
▁fellow	-10.7372
▁occasionally	-10.7372
▁divide	-10.7372
▁jack	-10.7373
▁coding	-10.7373
versus	-10.7373
ologist	-10.7374
will	-10.7374
▁elsewhere	-10.7374
▁invade	-10.7374
aspx	-10.7374
▁Over	-10.7385
▁growth	-10.7387
▁joy	-10.7388
▁Back	-10.7391
torrent	-10.7393
wash	-10.7394
▁bush	-10.7395
▁terror	-10.7399
▁meaningful	-10.7416
▁lately	-10.7417
TER	-10.7419
▁effectively	-10.7421
▁listed	-10.7425
▁cow	-10.7429
ENT	-10.7431
▁ARE	-10.7441
▁thin	-10.7443
▁screwed	-10.7451
▁differently	-10.7452
▁reverse	-10.7453
▁normally	-10.7453
▁rare	-10.746
▁additional	-10.746
▁Bur	-10.7471
▁El	-10.7477
▁asses	-10.748
▁Ku	-10.7491
▁funding	-10.7513
▁construct	-10.7527
▁peer	-10.7538
▁lib	-10.7543
-10	-10.7546
▁sea	-10.7552
▁chicks	-10.7558
▁fired	-10.7571
rous	-10.7572
▁industrial	-10.7593
▁MO	-10.7593
field	-10.7594
install	-10.7594
people	-10.7595
believe	-10.7595
funny	-10.7596
▁Wal	-10.7599
when	-10.7602
▁Fucking	-10.7613
▁finish	-10.7613
wise	-10.7617
▁provid	-10.7631
▁constant	-10.7635
▁corporation	-10.7636
▁Wall	-10.7649
▁entertain	-10.7652
▁danger	-10.7654
/2008/12/	-10.7656
▁algorithm	-10.7656
▁coffee	-10.7656
▁combination	-10.7656
▁divorce	-10.7656
▁heterosexual	-10.7656
▁ignorance	-10.7656
▁inauguration	-10.7656
▁sarcastic	-10.7656
▁tattoo	-10.7656
▁chemical	-10.7656
▁fallacy	-10.7656
▁trend	-10.7656
▁PHP	-10.7656
volving	-10.7656
▁upgrade	-10.7656
▁offense	-10.7656
▁virus	-10.7657
▁extent	-10.7657
▁teeth	-10.7657
▁newspaper	-10.7657
▁indicate	-10.7658
▁gather	-10.7658
▁device	-10.7658
▁percentage	-10.7658
▁bridge	-10.7659
▁score	-10.766
▁distribution	-10.7661
▁Find	-10.7662
▁yard	-10.7662
▁Yet	-10.7666
▁unlike	-10.7667
▁flip	-10.7671
▁Jim	-10.7671
84	-10.7672
▁duck	-10.7674
▁ultimately	-10.7675
=0	-10.7677
▁remark	-10.7678
▁environmental	-10.7679
proving	-10.7681
▁representation	-10.7685
▁creative	-10.7686
▁significantly	-10.7687
▁sustain	-10.769
▁Tri	-10.7706
!!!!!	-10.7707
▁wake	-10.7707
▁ubuntu	-10.7708
▁editor	-10.772
▁stealing	-10.7744
rink	-10.7771
code	-10.7778
▁tin	-10.778
▁pretending	-10.7785
ole	-10.7786
▁pointless	-10.7791
▁Hmmm	-10.7796
▁fed	-10.7814
▁socialist	-10.782
▁sucked	-10.7834
▁Cur	-10.7835
▁$50	-10.7838
▁tur	-10.7839
Po	-10.784
forcing	-10.7846
range	-10.7847
▁showed	-10.786
▁3)	-10.7865
500	-10.787
ground	-10.7888
▁spin	-10.7891
Why	-10.7896
▁cab	-10.791
▁chart	-10.7911
bble	-10.7916
rank	-10.7924
acon	-10.7943
▁punish	-10.7948
▁neighbor	-10.795
▁register	-10.795
▁arbitrary	-10.795
▁executive	-10.795
▁implicit	-10.795
▁republican	-10.795
▁vacuum	-10.795
▁worried	-10.795
▁opposition	-10.795
▁Office	-10.795
▁disaster	-10.795
▁expand	-10.795
▁graduate	-10.795
▁CEO	-10.795
▁Syria	-10.7951
▁sharing	-10.7951
▁lift	-10.7951
▁Indeed	-10.7951
▁Word	-10.7951
▁Court	-10.7951
▁ownership	-10.7951
▁Nazi	-10.7952
▁FUCKING	-10.7952
▁percent	-10.7953
▁monster	-10.7954
▁flow	-10.7957
▁herself	-10.796
▁manufacturer	-10.7961
▁productive	-10.7964
▁raid	-10.7966
▁knock	-10.7966
▁winter	-10.7969
▁hyp	-10.798
▁moderate	-10.7985
▁highest	-10.799
100	-10.7994
▁advanced	-10.8003
▁reader	-10.8008
▁pl	-10.8009
▁tho	-10.8016
kill	-10.802
ature	-10.8031
▁destroyed	-10.8035
▁relie	-10.8036
char	-10.8038
▁painful	-10.8046
▁lip	-10.8058
▁Git	-10.807
▁hanging	-10.8071
▁Put	-10.8099
▁row	-10.8101
▁eliminate	-10.8112
▁wipe	-10.8113
▁Ka	-10.8118
58	-10.8124
bag	-10.813
▁shared	-10.8137
▁rely	-10.8137
▁trap	-10.8143
▁employ	-10.8167
▁45	-10.8188
something	-10.8192
picture	-10.8192
game	-10.8193
print	-10.8196
▁annoy	-10.8197
where	-10.8199
▁spoke	-10.8241
73	-10.8244
hahahaha	-10.8247
▁abstract	-10.8248
hug	-10.825
▁Absolutely	-10.8253
▁Clinton	-10.8253
▁England	-10.8253
▁bathroom	-10.8253
▁destruction	-10.8253
▁disturb	-10.8253
▁enforcement	-10.8253
▁fantastic	-10.8253
▁international	-10.8253
▁semantic	-10.8253
▁studies	-10.8253
▁witness	-10.8253
▁goatse	-10.8253
▁cousin	-10.8253
▁adapt	-10.8254
▁tactic	-10.8254
▁irony	-10.8254
▁vagina	-10.8254
▁tiger	-10.8254
▁Adam	-10.8254
IVE	-10.8254
▁informed	-10.8255
TION	-10.8256
▁deflation	-10.8256
▁pipe	-10.8256
browse	-10.8257
▁airport	-10.8257
▁ballot	-10.8257
▁genetically	-10.8257
▁cult	-10.826
▁Today	-10.826
▁bored	-10.826
wan	-10.8262
▁preach	-10.8262
▁Dark	-10.8263
▁mac	-10.8265
▁bull	-10.8267
▁existed	-10.8267
▁anonymous	-10.8268
▁2000	-10.8271
▁hire	-10.8272
▁cake	-10.8272
▁strictly	-10.8273
▁throughout	-10.8276
▁attracted	-10.8278
▁tv	-10.8279
▁bail	-10.8282
except	-10.8297
▁disk	-10.8309
▁greatest	-10.8311
▁flawed	-10.8318
▁retard	-10.8318
ANT	-10.8319
▁ruined	-10.8323
rum	-10.8325
▁neo	-10.8326
▁classes	-10.8326
boy	-10.8328
▁lesson	-10.8329
▁complaining	-10.833
▁FOR	-10.8337
craft	-10.8342
▁lit	-10.8344
▁dare	-10.8359
fire	-10.8369
▁angle	-10.8377
▁Mark	-10.8386
hl	-10.8396
▁fag	-10.8397
poli	-10.8407
ask	-10.8414
▁stat	-10.8416
▁interact	-10.8417
action	-10.8425
Better	-10.8441
▁career	-10.8452
cause	-10.846
▁reported	-10.848
▁tie	-10.8486
minded	-10.8493
▁Umm	-10.8493
because	-10.8506
Vote	-10.8509
▁acknowledge	-10.852
thread	-10.8524
▁bust	-10.8525
text	-10.853
Well	-10.8537
▁compet	-10.8541
▁intention	-10.8554
NO	-10.8556
▁slight	-10.8556
archive	-10.8566
▁circumcision	-10.8566
▁evangelical	-10.8566
▁identity	-10.8566
▁length	-10.8566
▁prostitute	-10.8566
▁surprising	-10.8566
▁tobacco	-10.8566
▁department	-10.8566
▁illustrat	-10.8566
▁variety	-10.8566
▁honor	-10.8566
▁gross	-10.8566
▁minimal	-10.8566
▁football	-10.8567
▁storm	-10.8567
▁defeat	-10.8567
▁depending	-10.8567
▁oversight	-10.8568
▁brown	-10.8568
▁attend	-10.8568
▁mouse	-10.8569
▁jury	-10.8569
Democratic	-10.857
hether	-10.8571
▁species	-10.8572
▁collection	-10.8574
▁neat	-10.8575
▁European	-10.8575
▁Thus	-10.8577
▁sight	-10.8579
▁complexity	-10.858
▁uncle	-10.858
▁greedy	-10.8581
high	-10.8587
▁skill	-10.8589
defining	-10.8589
▁unlikely	-10.8591
▁masses	-10.8592
▁beaten	-10.8593
▁implementation	-10.8596
▁output	-10.8596
▁seven	-10.8596
▁worthless	-10.8596
▁actively	-10.8598
▁disappointed	-10.8607
reme	-10.8608
▁kit	-10.861
does	-10.8614
▁tear	-10.8615
mean	-10.8619
▁hence	-10.8635
▁git	-10.8646
▁justified	-10.8664
▁bang	-10.8666
▁kicked	-10.8668
OP	-10.8685
▁Mine	-10.8687
▁pal	-10.87
▁anger	-10.8703
▁Chi	-10.8719
sort	-10.8722
▁actor	-10.8725
▁San	-10.8735
bad	-10.8746
▁react	-10.8762
▁ram	-10.8769
▁mini	-10.8789
▁offering	-10.8809
ivity	-10.882
secure	-10.8826
perfect	-10.8826
religious	-10.8827
▁drag	-10.8828
course	-10.8828
then	-10.8841
title	-10.885
▁sch	-10.8851
▁35	-10.8866
fix	-10.8868
▁semi	-10.8875
▁slap	-10.8881
▁comfort	-10.8883
long	-10.8886
▁occasion	-10.8887
journal	-10.8888
▁December	-10.8888
▁climate	-10.8888
▁contribute	-10.8888
▁dictator	-10.8888
▁discrimination	-10.8888
▁doctrine	-10.8888
▁genocide	-10.8888
▁hypothetical	-10.8888
▁libraries	-10.8888
▁operator	-10.8888
▁pocket	-10.8888
▁ridicule	-10.8888
▁routine	-10.8888
▁sufficient	-10.8888
▁syntax	-10.8888
▁tomorrow	-10.8888
▁Democracy	-10.8889
▁fascinat	-10.8889
▁implies	-10.8889
▁99%	-10.8889
▁throat	-10.8889
▁DVD	-10.8889
▁violation	-10.8889
▁Girl	-10.8889
▁DNA	-10.8889
▁Vista	-10.8889
▁fruit	-10.8889
urban	-10.8889
▁import	-10.8889
▁journalist	-10.8889
▁patch	-10.8889
▁distro	-10.8889
bucket	-10.889
▁yellow	-10.889
▁perception	-10.889
▁transport	-10.889
▁btw	-10.889
▁automatic	-10.889
▁verb	-10.889
▁launch	-10.889
▁dropped	-10.8891
▁legislation	-10.8891
▁junk	-10.8892
▁spammer	-10.8892
▁winning	-10.8892
izard	-10.8893
deviant	-10.8894
▁2006	-10.8895
▁analogy	-10.8902
▁Rock	-10.8903
Ca	-10.8915
▁personality	-10.8915
▁educated	-10.8915
▁testing	-10.8918
▁failing	-10.8923
▁Show	-10.8924
▁Nah	-10.8927
bie	-10.8928
▁grown	-10.8935
▁boxes	-10.8938
▁published	-10.8944
▁starve	-10.895
▁haha	-10.8951
▁Boo	-10.8953
▁replaced	-10.8965
Pro	-10.8976
▁criticize	-10.8977
▁organic	-10.8993
ICE	-10.8998
▁Sea	-10.8998
MB	-10.9008
▁Zen	-10.9009
▁secure	-10.9014
▁Bor	-10.9018
hear	-10.902
▁index	-10.9022
berg	-10.9031
69	-10.9035
raw	-10.9041
▁MP	-10.9044
▁Spa	-10.9045
▁complaint	-10.9055
ography	-10.9056
▁laughed	-10.9063
▁rain	-10.9075
▁chi	-10.909
▁smoked	-10.9099
big	-10.9113
▁fur	-10.9118
unning	-10.9119
▁Start	-10.912
▁#1	-10.9133
▁urge	-10.9136
rock	-10.9154
mini	-10.9156
—	-10.9159
style	-10.9159
should	-10.916
define	-10.916
from	-10.9162
ALL	-10.9174
signed	-10.9175
ahan	-10.9175
▁disappoint	-10.9178
water	-10.9185
▁lesser	-10.9202
▁tir	-10.9205
▁CD	-10.9208
▁origin	-10.9209
▁plea	-10.9211
▁January	-10.9222
▁WILL	-10.9222
▁hydrogen	-10.9222
▁misleading	-10.9222
▁trivial	-10.9222
▁unnecessary	-10.9222
▁hypothesis	-10.9222
▁lobby	-10.9222
▁evolve	-10.9222
▁bubble	-10.9222
▁cabinet	-10.9222
▁clarify	-10.9222
▁domestic	-10.9222
▁twist	-10.9222
▁whatsoever	-10.9222
▁finance	-10.9222
▁hammer	-10.9222
▁quiet	-10.9222
▁ruling	-10.9222
▁;-)	-10.9222
▁Guy	-10.9222
▁stress	-10.9222
▁GUI	-10.9222
▁shelter	-10.9222
▁translate	-10.9223
▁biological	-10.9223
▁Madoff	-10.9223
▁France	-10.9223
▁plug	-10.9223
▁lung	-10.9224
▁harmful	-10.9226
▁Kind	-10.9226
▁governor	-10.9227
▁native	-10.9228
▁fancy	-10.9228
▁comparable	-10.9229
▁mentality	-10.9232
▁weekend	-10.9233
▁invite	-10.9234
▁spoken	-10.9235
▁LA	-10.9235
▁Redditors	-10.9236
▁Roman	-10.9237
otic	-10.9237
horn	-10.9241
▁offend	-10.9243
▁Way	-10.9243
▁Plan	-10.9248
▁Germany	-10.9252
▁decade	-10.9252
▁scientist	-10.9252
-----	-10.9258
▁enable	-10.9262
▁$8	-10.927
▁crew	-10.9273
▁realise	-10.9281
▁physically	-10.9286
▁payment	-10.929
AKE	-10.9296
▁driven	-10.9297
▁$7	-10.9304
▁raw	-10.931
▁AN	-10.9323
▁dear	-10.933
▁reduced	-10.9336
Don	-10.9337
()	-10.9338
▁refused	-10.934
last	-10.9345
▁Pu	-10.935
▁walked	-10.9361
▁emotion	-10.9362
▁originally	-10.9365
▁bothered	-10.937
▁upper	-10.9375
▁burned	-10.9401
▁critic	-10.9407
▁Val	-10.9413
▁demonstrat	-10.9418
FA	-10.9426
▁friendly	-10.9429
▁500	-10.9434
▁produc	-10.9435
TV	-10.9438
▁wise	-10.9442
▁Live	-10.9446
▁suggested	-10.9462
▁enjoyed	-10.9469
aaaa	-10.947
▁jo	-10.9487
▁designer	-10.9487
61	-10.9496
ubuntu	-10.9502
position	-10.9503
women	-10.9506
finit	-10.9506
market	-10.9513
atheist	-10.9514
List	-10.9531
▁bias	-10.9541
▁ultimate	-10.9544
▁22	-10.9558
stitution	-10.9559
For	-10.9562
▁spirit	-10.9566
▁Firefox	-10.9567
▁abortion	-10.9567
▁christmas	-10.9567
▁heavily	-10.9567
▁sandwich	-10.9567
▁Funny	-10.9567
▁frankly	-10.9567
▁fulfill	-10.9567
▁advertise	-10.9567
▁translation	-10.9567
▁profile	-10.9567
▁Consider	-10.9567
▁plastic	-10.9567
▁Toronto	-10.9567
▁Finally	-10.9567
▁prime	-10.9567
▁psycho	-10.9567
▁emacs	-10.9567
▁priest	-10.9567
▁retail	-10.9567
▁nuke	-10.9567
▁presum	-10.9567
▁General	-10.9568
▁Ruby	-10.9568
▁consciousness	-10.9568
▁generate	-10.9569
▁hung	-10.9569
▁lump	-10.957
▁polygamy	-10.9571
▁collective	-10.9572
▁trash	-10.9573
▁selection	-10.9573
▁bond	-10.9573
▁Jack	-10.9574
▁electricity	-10.9575
▁cunt	-10.9577
applied	-10.9578
▁render	-10.9581
▁neutral	-10.9583
▁speaker	-10.9587
▁bright	-10.9588
▁Dead	-10.9593
▁assure	-10.9595
▁dynamic	-10.9601
▁compete	-10.9603
▁wave	-10.961
▁Mike	-10.9611
▁employee	-10.9611
▁tro	-10.9612
▁Book	-10.9612
▁Didn	-10.9639
▁younger	-10.9647
▁tri	-10.9653
▁affected	-10.9663
0)	-10.9665
illa	-10.9674
round	-10.9674
▁holy	-10.9675
War	-10.9681
wh	-10.9685
▁Need	-10.9686
lb	-10.9694
▁soft	-10.9711
etc	-10.972
lum	-10.9732
▁insist	-10.9743
▁NT	-10.9748
▁passion	-10.9751
Press	-10.9758
LL	-10.9766
▁$40	-10.977
▁introduc	-10.9786
dramatic	-10.9841
▁tall	-10.9843
lies	-10.9849
girl	-10.9871
▁oppose	-10.988
sually	-10.988
▁announce	-10.9884
▁strict	-10.9901
evelop	-10.9922
▁Civil	-10.9924
▁apologize	-10.9924
▁arrogant	-10.9924
▁coconut	-10.9924
▁convenient	-10.9924
▁hospital	-10.9924
▁numerous	-10.9924
▁sneeze	-10.9924
▁zombie	-10.9924
▁monopoly	-10.9924
▁yield	-10.9924
▁distract	-10.9924
▁permanent	-10.9924
▁uniform	-10.9924
▁polite	-10.9924
▁inevitabl	-10.9924
▁violate	-10.9924
▁delay	-10.9924
auto	-10.9924
▁Besides	-10.9924
▁cease	-10.9924
▁Class	-10.9924
▁SEC	-10.9924
▁television	-10.9924
patriot	-10.9924
▁blond	-10.9924
▁motor	-10.9924
▁shove	-10.9925
▁advis	-10.9925
▁invented	-10.9925
▁Western	-10.9925
▁novel	-10.9926
▁loose	-10.9926
Hey	-10.9926
▁adjust	-10.9926
▁calm	-10.9927
▁desk	-10.9927
▁hopefully	-10.9929
▁condom	-10.9929
▁boob	-10.9929
▁resort	-10.9931
▁construction	-10.9931
▁expectations	-10.9932
▁=)	-10.9932
▁frequently	-10.9934
▁psychology	-10.9934
▁interaction	-10.9937
▁thi	-10.9938
▁Michael	-10.9939
▁everyday	-10.9939
▁Franken	-10.9941
▁cities	-10.9941
▁bread	-10.9942
▁Upvoted	-10.9944
shop	-10.9945
▁Out	-10.9945
▁{	-10.9946
▁Gay	-10.9947
▁Dick	-10.9951
▁dance	-10.9951
▁Common	-10.9956
▁shocked	-10.9957
▁viable	-10.9957
▁App	-10.9961
▁extended	-10.9963
▁slower	-10.9971
wait	-10.9978
▁weapon	-10.998
flu	-10.9986
under	-10.9987
▁carrie	-10.9993
▁believers	-10.9998
▁Meh	-10.9999
▁magical	-11.0002
▁photograph	-11.0003
MySQL	-11.0012
float	-11.0019
home	-11.0027
▁fairy	-11.003
▁responding	-11.0031
▁solved	-11.0032
▁Part	-11.0045
▁drawing	-11.0046
▁sum	-11.0049
stood	-11.0066
▁hip	-11.0076
▁coin	-11.0082
▁assist	-11.0126
VERY	-11.0137
▁photoshop	-11.015
▁Bad	-11.0161
▁idiotic	-11.0171
▁menu	-11.0171
▁reduc	-11.0193
▁Ask	-11.0194
urg	-11.0195
▁scar	-11.0202
▁Bel	-11.0204
▁sto	-11.0222
screen	-11.0232
shirt	-11.0232
great	-11.0235
▁chip	-11.0238
uction	-11.0239
voting	-11.0241
giving	-11.025
para	-11.0265
▁Jan	-11.0265
▁branch	-11.0286
$$$	-11.0293
▁relation	-11.0294
▁IMHO	-11.0294
▁Schiff	-11.0294
▁conduct	-11.0294
▁creepy	-11.0294
▁english	-11.0294
▁flavor	-11.0294
▁genius	-11.0294
▁horribly	-11.0294
▁penalty	-11.0294
▁pseudo	-11.0294
▁substance	-11.0294
▁NARWHAL	-11.0294
▁bacteria	-11.0294
▁component	-11.0294
▁fascist	-11.0294
▁scratch	-11.0294
▁cruel	-11.0294
▁delusion	-11.0294
▁silence	-11.0294
▁snake	-11.0294
▁Police	-11.0294
▁staff	-11.0294
▁Greek	-11.0294
▁premise	-11.0294
▁vacation	-11.0294
▁Street	-11.0294
▁rifle	-11.0294
▁cheese	-11.0294
▁Learn	-11.0294
▁session	-11.0294
▁stereotype	-11.0294
▁Batman	-11.0294
ophilia	-11.0294
▁medium	-11.0294
▁Hopefully	-11.0295
fractal	-11.0295
▁supernatural	-11.0295
▁gear	-11.0295
▁hiding	-11.0295
▁feedback	-11.0295
▁pathetic	-11.0295
▁knee	-11.0295
▁transfer	-11.0295
▁chocolate	-11.0295
▁Shit	-11.0295
▁began	-11.0296
▁David	-11.0296
▁radical	-11.0296
▁anime	-11.0296
▁occurred	-11.0297
▁investors	-11.0299
▁nerd	-11.03
▁2005	-11.03
▁downvoting	-11.03
▁GOD	-11.0303
▁merit	-11.0303
▁devil	-11.0304
▁agnosticism	-11.0306
▁precisely	-11.0309
▁poop	-11.031
▁boil	-11.0313
▁clothing	-11.0317
cute	-11.0322
▁formal	-11.0323
▁organized	-11.033
▁hyper	-11.0332
▁accountable	-11.0336
▁jet	-11.0341
▁bloody	-11.0349
▁promised	-11.0356
▁previously	-11.036
Yes	-11.0362
▁dressed	-11.0365
▁responded	-11.0379
▁developing	-11.0381
▁stating	-11.0385
▁prayer	-11.0388
▁businesses	-11.0394
▁@	-11.0398
▁Die	-11.0412
▁pc	-11.0429
▁morally	-11.0429
▁tape	-11.0444
▁pastor	-11.0453
▁rear	-11.0473
.......	-11.0497
▁sink	-11.0507
evil	-11.0516
▁raped	-11.0517
void	-11.0521
AND	-11.0537
lace	-11.055
ette	-11.0568
talk	-11.0589
▁rough	-11.0591
▁rais	-11.0592
▁shin	-11.0609
friend	-11.0615
interest	-11.0617
help	-11.0617
maybe	-11.0617
found	-11.0617
social	-11.0617
cycle	-11.0623
although	-11.0637
fall	-11.0638
▁bankrupt	-11.0638
hahaha	-11.0639
▁Program	-11.0655
▁essential	-11.0656
▁murderer	-11.0661
base	-11.0661
tech	-11.0667
▁oppress	-11.067
▁Egypt	-11.0671
▁pursue	-11.0671
▁director	-11.0677
▁Lebanese	-11.0679
▁advocating	-11.0679
▁batteries	-11.0679
▁concrete	-11.0679
▁electronic	-11.0679
▁escort	-11.0679
▁excited	-11.0679
▁narrow	-11.0679
▁unemployment	-11.0679
▁virgin	-11.0679
▁County	-11.0679
▁creature	-11.0679
▁guitar	-11.0679
▁Science	-11.0679
▁dinner	-11.0679
▁medicine	-11.0679
▁trillion	-11.0679
▁zoom	-11.0679
▁Mormon	-11.0679
▁Watch	-11.0679
▁Saudi	-11.0679
▁fiction	-11.0679
▁troops	-11.0679
▁drill	-11.0679
▁sample	-11.0679
▁intense	-11.0679
▁HAVE	-11.0679
▁denied	-11.0679
▁molest	-11.0679
▁backwards	-11.068
▁banned	-11.068
▁dropping	-11.0681
racial	-11.0681
▁shopping	-11.0682
▁juice	-11.0682
▁mature	-11.0682
▁Baby	-11.0682
▁battle	-11.0683
▁legalization	-11.0683
▁dumbass	-11.0684
▁edge	-11.0684
▁motion	-11.0686
▁Egyptian	-11.0687
▁Must	-11.0687
▁STL	-11.0687
photo	-11.069
▁coward	-11.0691
▁communication	-11.0691
▁contradiction	-11.0692
▁Yup	-11.0692
ential	-11.0692
▁plate	-11.0696
▁macro	-11.0697
▁grab	-11.0697
▁Global	-11.0697
▁tele	-11.0697
▁inches	-11.07
▁Ever	-11.0702
▁Wikipedia	-11.0702
▁max	-11.0703
▁nail	-11.0704
▁variable	-11.0705
▁entertainment	-11.0706
▁motivation	-11.0706
▁pee	-11.0709
▁OMG	-11.0712
▁golden	-11.0714
▁substanti	-11.0717
worker	-11.0722
▁rocket	-11.0723
▁followers	-11.0727
▁casual	-11.0735
▁Whatever	-11.0737
▁hired	-11.0738
▁justification	-11.074
▁wealthy	-11.0742
▁threatened	-11.0743
▁bud	-11.0744
▁cup	-11.0744
▁bowl	-11.075
▁logically	-11.0758
▁manipulat	-11.0762
hur	-11.0774
tories	-11.0785
Go	-11.0811
▁engineering	-11.0824
▁PM	-11.0829
throw	-11.0836
▁DC	-11.0845
ison	-11.0853
ELL	-11.0864
drive	-11.0877
▁sane	-11.0905
Man	-11.0919
nstant	-11.093
attle	-11.0933
▁mob	-11.0958
▁democrat	-11.0973
▁Post	-11.0985
▁Care	-11.0991
▁Dec	-11.1001
evolution	-11.1016
especially	-11.1017
submit	-11.1017
bashing	-11.1017
nothing	-11.1018
EST	-11.1021
▁OO	-11.1024
paper	-11.1027
▁Gee	-11.1034
▁confuse	-11.1035
▁extend	-11.1035
New	-11.1039
▁unfortunate	-11.1056
▁literal	-11.1056
allow	-11.1064
team	-11.1067
▁LIKE	-11.1079
▁Richard	-11.1079
▁convicted	-11.1079
▁correlation	-11.1079
▁dinosaur	-11.1079
▁lesbian	-11.1079
▁militant	-11.1079
▁occupation	-11.1079
▁parody	-11.1079
▁participate	-11.1079
▁populace	-11.1079
▁temperature	-11.1079
▁Stupid	-11.1079
▁debunk	-11.1079
▁disgusting	-11.1079
▁hobby	-11.1079
▁psychological	-11.1079
adequate	-11.1079
▁choosing	-11.1079
▁impressed	-11.1079
▁buddy	-11.1079
▁Dutch	-11.1079
▁Scott	-11.1079
▁audio	-11.1079
▁Gift	-11.1079
▁scrap	-11.1079
▁Add	-11.108
▁amusing	-11.108
▁immoral	-11.108
▁milk	-11.108
▁♪	-11.108
▁dispute	-11.108
▁scroll	-11.1081
▁begging	-11.1081
▁confront	-11.1081
▁Assum	-11.1081
▁bump	-11.1081
▁roommate	-11.1081
▁attractive	-11.1081
▁ethical	-11.1082
▁ANY	-11.1082
▁drum	-11.1082
▁Irish	-11.1082
▁planning	-11.1082
▁latter	-11.1083
▁font	-11.1083
▁Palin	-11.1083
▁pound	-11.1083
resident	-11.1086
▁bonuses	-11.1086
▁winner	-11.1086
▁presidential	-11.1088
▁prick	-11.1088
▁stolen	-11.1091
▁plugin	-11.1093
▁slip	-11.1093
actually	-11.1097
▁stab	-11.1097
▁naive	-11.1098
▁Fair	-11.1099
▁fift	-11.11
open	-11.1101
▁chest	-11.1102
▁Year	-11.1102
▁sexuality	-11.1103
▁amazed	-11.1103
▁lend	-11.1112
▁Such	-11.1118
▁declared	-11.112
txt	-11.1122
▁ONE	-11.1124
▁classic	-11.1129
▁tied	-11.1137
▁regularly	-11.1138
▁Tah	-11.114
▁Boy	-11.1142
▁boat	-11.1146
▁sand	-11.1147
▁stupidity	-11.1148
never	-11.1149
▁—	-11.1155
▁adopted	-11.1161
▁labeled	-11.1163
image	-11.1163
▁inherent	-11.1163
blew	-11.1168
IX	-11.118
▁peaceful	-11.1188
▁marginal	-11.1204
▁mile	-11.1215
referred	-11.1216
toxic	-11.1222
▁layer	-11.1236
best	-11.1243
▁fri	-11.126
hhhh	-11.128
▁tea	-11.14
▁manipulate	-11.1406
rang	-11.143
front	-11.1432
issue	-11.1433
WTF	-11.1433
programming	-11.1434
would	-11.1434
happy	-11.1434
support	-11.1434
school	-11.1435
▁resemble	-11.1437
▁proportion	-11.1439
active	-11.1439
American	-11.144
porn	-11.1442
proof	-11.1446
moral	-11.1456
She	-11.146
flation	-11.148
▁differ	-11.1483
Democrat	-11.1489
lack	-11.1491
beat	-11.1493
▁conscious	-11.1494
▁stole	-11.1495
▁Number	-11.1495
▁Afghanistan	-11.1495
▁Clearly	-11.1495
▁Downvoted	-11.1495
▁Little	-11.1495
▁Religion	-11.1495
▁academic	-11.1495
▁compensation	-11.1495
▁confidence	-11.1495
▁empirical	-11.1495
▁hybrid	-11.1495
▁ignoring	-11.1495
▁implication	-11.1495
▁infrastructure	-11.1495
▁instrument	-11.1495
▁phenomenon	-11.1495
▁philosophical	-11.1495
▁trigger	-11.1495
▁whining	-11.1495
activist	-11.1495
xkcd	-11.1495
▁hidden	-11.1495
▁torturing	-11.1495
▁mechanism	-11.1495
▁quarter	-11.1495
▁Torture	-11.1495
▁competitor	-11.1495
▁instantly	-11.1495
▁patient	-11.1495
▁thugs	-11.1495
CommonLaw	-11.1495
▁statistical	-11.1495
▁sacrific	-11.1496
▁Imagine	-11.1496
▁CNN	-11.1496
▁athiest	-11.1496
▁crawl	-11.1496
▁Play	-11.1496
firefox	-11.1496
▁grave	-11.1496
▁Sadly	-11.1496
▁Green	-11.1497
▁Kubuntu	-11.1498
ville	-11.1498
imdb	-11.1499
▁orange	-11.1499
▁permission	-11.1499
▁mandate	-11.15
▁theories	-11.1501
▁initiat	-11.1501
▁Hezbollah	-11.1502
▁appearance	-11.1503
▁Marine	-11.1503
▁admitted	-11.1504
▁neocon	-11.1504
▁mice	-11.1504
▁ratio	-11.1505
Chr	-11.1505
▁improvement	-11.1506
▁shake	-11.1506
▁stack	-11.1507
▁epic	-11.1509
▁obligation	-11.151
▁bow	-11.151
▁Much	-11.1511
▁explicitly	-11.1517
▁Port	-11.1519
▁profitable	-11.1519
▁reform	-11.152
▁Party	-11.152
▁jam	-11.1521
▁Happy	-11.1521
▁Given	-11.1521
▁rage	-11.1522
▁chill	-11.1525
Tech	-11.1526
▁ego	-11.1527
▁lifetime	-11.1528
%3	-11.1535
thro	-11.1538
▁expl	-11.154
▁Remind	-11.1543
▁introduced	-11.1547
▁nowhere	-11.1548
▁summer	-11.1549
▁biased	-11.1549
▁owe	-11.1557
▁rever	-11.1578
▁Dan	-11.1584
▁endless	-11.1592
▁signal	-11.1598
▁sale	-11.1642
evertheless	-11.1662
gif	-11.1688
ccidentally	-11.1701
pick	-11.1705
▁Bon	-11.1708
png	-11.1739
ridge	-11.1768
▁warn	-11.1784
▁capitalist	-11.1789
pack	-11.1828
▁contradict	-11.1848
HHH	-11.1853
▁Mini	-11.1861
member	-11.1862
script	-11.1867
business	-11.1869
build	-11.1869
When	-11.1869
without	-11.1872
▁respectful	-11.1872
Star	-11.1881
after	-11.1885
▁declare	-11.1886
ibility	-11.189
▁motivat	-11.1899
▁yea	-11.1904
▁greed	-11.1914
awk	-11.1914
zbollah	-11.1923
waffel	-11.193
International	-11.193
▁BLOG	-11.193
▁Communism	-11.193
▁Furthermore	-11.193
▁Welcome	-11.193
▁derivative	-11.193
▁efficiency	-11.193
▁enormous	-11.193
▁fantasy	-11.193
▁fountain	-11.193
▁happiness	-11.193
▁python	-11.193
▁restaurant	-11.193
▁restriction	-11.193
▁victory	-11.193
▁London	-11.193
▁mountain	-11.193
▁borrow	-11.193
▁sentiment	-11.193
▁William	-11.193
▁motherfucker	-11.193
▁pleasure	-11.193
▁recipe	-11.193
▁replied	-11.193
Economic	-11.193
▁praise	-11.193
▁javascript	-11.193
▁pussy	-11.193
▁spoil	-11.193
▁obey	-11.193
▁cartoon	-11.193
▁Anything	-11.193
▁Therefore	-11.193
▁steel	-11.193
▁starving	-11.193
▁rush	-11.193
▁desert	-11.193
▁housing	-11.193
▁domain	-11.1931
fabric	-11.1931
▁surface	-11.1931
▁Peace	-11.1931
▁WAS	-11.1931
▁confusion	-11.1931
▁Turn	-11.1931
▁describing	-11.1932
▁solar	-11.1932
▁bodies	-11.1932
▁capture	-11.1932
▁secular	-11.1933
▁banner	-11.1933
▁comedy	-11.1933
▁conversion	-11.1934
▁lunch	-11.1934
▁Point	-11.1935
▁untrue	-11.1936
▁hmm	-11.1937
▁Phil	-11.194
▁charity	-11.194
▁LOT	-11.194
▁panel	-11.1941
▁Hope	-11.1942
▁Alex	-11.1942
▁senator	-11.1942
▁recover	-11.1942
▁Allah	-11.1942
▁extract	-11.1945
▁reasonably	-11.195
▁meaningless	-11.1953
▁realistic	-11.1957
▁arrived	-11.1963
▁Perl	-11.1964
▁thorough	-11.1966
▁perceived	-11.1967
▁north	-11.1968
▁stem	-11.1973
▁Pick	-11.1973
▁Canon	-11.1974
▁regulated	-11.1977
▁passes	-11.1981
▁Wouldn	-11.1993
▁outlaw	-11.1994
mobile	-11.2008
▁Rand	-11.2014
▁$500	-11.2016
▁factory	-11.2019
▁consideration	-11.2066
▁civilian	-11.2077
▁$5	-11.2151
▁scan	-11.2238
herently	-11.2283
▁copie	-11.2288
natural	-11.2322
christian	-11.2322
connect	-11.2323
Linux	-11.2323
safe	-11.233
black	-11.2333
▁Steve	-11.2338
▁delete	-11.2349
born	-11.235
paid	-11.2355
▁intend	-11.2356
crew	-11.2357
▁explicit	-11.2362
▁sudden	-11.2362
▁+1	-11.2372
saw	-11.2379
semble	-11.2384
▁puppy	-11.2385
IGHT	-11.2385
–	-11.2385
▁Amazon	-11.2385
▁Buddha	-11.2385
▁Florida	-11.2385
▁Virtual	-11.2385
▁activities	-11.2385
▁applaud	-11.2385
▁behaviour	-11.2385
▁conclude	-11.2385
▁convincing	-11.2385
▁delicious	-11.2385
▁discipline	-11.2385
▁encouraging	-11.2385
▁immigrants	-11.2385
▁ingredient	-11.2385
▁invalid	-11.2385
▁maximum	-11.2385
▁multiplayer	-11.2385
▁pollution	-11.2385
▁qualify	-11.2385
▁suspicious	-11.2385
▁toothbrush	-11.2385
▁volume	-11.2385
▁enemies	-11.2385
▁schedule	-11.2385
▁simulat	-11.2385
▁transition	-11.2385
▁WHY	-11.2385
▁assassin	-11.2385
▁invasion	-11.2385
▁gnome	-11.2385
▁statistics	-11.2385
▁funnier	-11.2385
▁beauty	-11.2385
▁clown	-11.2385
▁Women	-11.2385
▁creator	-11.2385
▁aggressive	-11.2385
▁liking	-11.2385
▁decriminaliz	-11.2385
▁Army	-11.2385
▁boost	-11.2385
▁Stalin	-11.2385
▁repeatedly	-11.2385
▁Gear	-11.2385
▁euro	-11.2385
▁WITH	-11.2385
▁detain	-11.2385
▁James	-11.2385
▁subtle	-11.2385
▁scope	-11.2385
▁tissue	-11.2386
▁liar	-11.2386
▁instructions	-11.2386
▁entity	-11.2386
▁Sunday	-11.2386
▁accent	-11.2386
▁birthday	-11.2386
▁framework	-11.2386
▁jackass	-11.2387
▁Malkin	-11.2387
▁shipping	-11.2387
▁hungry	-11.2387
▁ladies	-11.2387
▁wives	-11.2388
▁shark	-11.2388
▁reduction	-11.2388
▁modified	-11.2389
▁kidnap	-11.2389
▁firing	-11.2389
▁fanatic	-11.2389
▁breed	-11.2389
▁1999	-11.239
▁nearby	-11.239
▁attraction	-11.239
▁unfair	-11.239
▁slide	-11.2391
▁grain	-11.2392
▁hatred	-11.2392
▁hint	-11.2392
▁submitting	-11.2393
▁2004	-11.2394
▁2003	-11.2395
▁oppression	-11.2396
▁replacement	-11.2396
▁chair	-11.2396
▁BUT	-11.2397
▁Neo	-11.2398
▁roof	-11.2398
▁50%	-11.2399
▁vary	-11.2402
▁fold	-11.2403
▁nine	-11.2403
▁homo	-11.2406
▁qualified	-11.2407
▁10%	-11.2418
▁dating	-11.242
REALLY	-11.2424
AGE	-11.2427
▁Sara	-11.2435
▁incredible	-11.2436
▁OH	-11.2444
▁fallen	-11.2445
▁dual	-11.2461
▁dragg	-11.2472
Product	-11.2504
▁democratic	-11.2506
▁employer	-11.2508
▁chick	-11.2536
▁organiz	-11.2538
wake	-11.2553
syn	-11.2555
▁cleanse	-11.2562
▁Prop	-11.2583
▁sup	-11.2595
TY	-11.2612
▁gig	-11.2628
▁$15	-11.2705
▁Australia	-11.273
info	-11.275
▁refus	-11.2752
brew	-11.2763
▁Gene	-11.2781
terror	-11.2799
original	-11.2799
scientific	-11.2799
culture	-11.2806
woman	-11.2806
break	-11.2808
stuff	-11.2812
create	-11.2812
known	-11.282
▁shock	-11.2822
money	-11.2826
▁mutual	-11.2838
▁america	-11.284
Some	-11.2845
▁distribut	-11.2854
▁analog	-11.2857
atisfaction	-11.2861
▁simultaneous	-11.2861
whelmed	-11.2861
▁Company	-11.2861
▁Marcellus	-11.2861
▁Nikon	-11.2861
▁acronym	-11.2861
▁assembly	-11.2861
▁bandwidth	-11.2861
▁blatant	-11.2861
▁buried	-11.2861
▁capacity	-11.2861
▁desperate	-11.2861
▁equipment	-11.2861
▁exposure	-11.2861
▁favourite	-11.2861
▁heaven	-11.2861
▁impressive	-11.2861
▁inferior	-11.2861
▁instinct	-11.2861
▁invisible	-11.2861
▁magnitude	-11.2861
▁nowadays	-11.2861
▁opportunities	-11.2861
▁recruit	-11.2861
▁studied	-11.2861
▁twenty	-11.2861
▁Guess	-11.2861
▁brief	-11.2861
▁burden	-11.2861
▁dancing	-11.2861
▁kitchen	-11.2861
▁parallel	-11.2861
▁romantic	-11.2861
▁unknowable	-11.2861
▁grocer	-11.2861
▁irrational	-11.2861
▁racism	-11.2861
▁Shelton	-11.2861
▁Sweet	-11.2861
▁credible	-11.2861
▁Gnome	-11.2861
▁theoretical	-11.2861
▁Navy	-11.2861
▁Granted	-11.2861
▁talent	-11.2861
▁GPL	-11.2861
monsanto	-11.2861
Perfect	-11.2861
Terror	-11.2861
▁FYI	-11.2861
▁unlawful	-11.2861
▁stream	-11.2861
▁equate	-11.2861
▁facing	-11.2861
▁nasty	-11.2861
▁JavaScript	-11.2861
▁upmodded	-11.2861
▁convey	-11.2861
▁broadcast	-11.2862
▁neighborhood	-11.2862
▁contest	-11.2862
▁presence	-11.2862
▁sweat	-11.2862
▁subset	-11.2862
▁Hamas	-11.2862
▁blunt	-11.2862
petition	-11.2862
▁aircraft	-11.2862
▁exciting	-11.2862
▁Quit	-11.2862
▁Neither	-11.2863
▁grasp	-11.2863
▁Throw	-11.2863
▁shotgun	-11.2864
▁glor	-11.2864
▁YES	-11.2864
▁shallow	-11.2864
▁Music	-11.2865
▁institutions	-11.2865
▁hiring	-11.2865
▁planned	-11.2865
▁Jon	-11.2865
▁Southern	-11.2866
▁flame	-11.2866
▁asshat	-11.2867
stick	-11.2867
▁lifestyle	-11.2867
Elect	-11.2868
▁reserve	-11.287
▁export	-11.287
▁pursu	-11.287
▁outcome	-11.287
▁apartment	-11.2872
legal	-11.2873
▁gang	-11.2875
▁alter	-11.2879
HAHAHA	-11.288
▁highway	-11.2882
▁THEY	-11.2882
▁Master	-11.2882
▁mutually	-11.2884
▁basement	-11.2884
▁vice	-11.2888
▁Fail	-11.2893
▁1%	-11.2894
▁drawn	-11.2895
▁crab	-11.2896
▁setup	-11.2897
▁Kill	-11.2898
design	-11.29
▁Pop	-11.2911
▁forbid	-11.2926
▁tube	-11.293
ocid	-11.2946
intentional	-11.2952
ngle	-11.2954
▁projection	-11.2957
▁twin	-11.2958
▁Cho	-11.2992
▁blu	-11.2992
system	-11.2993
▁scare	-11.3027
citing	-11.3029
▁tune	-11.3046
espite	-11.3046
Anti	-11.3061
▁attribute	-11.3081
▁fist	-11.3096
▁associate	-11.3109
▁robb	-11.3153
effect	-11.323
▁figur	-11.3242
nytime	-11.3272
expensive	-11.3299
health	-11.3299
internet	-11.3299
conservative	-11.3299
sound	-11.3299
Total	-11.33
▁establish	-11.3313
weight	-11.3316
▁consume	-11.3326
online	-11.3336
ennis	-11.334
▁legislat	-11.3356
true	-11.3357
ITE	-11.3358
▁instruct	-11.336
Emanuel	-11.3361
~~~	-11.3361
▁fertiliz	-11.3361
Religious	-11.3361
▁Chicago	-11.3361
▁Engineer	-11.3361
▁Excellent	-11.3361
▁Galveston	-11.3361
▁JUST	-11.3361
▁KNOW	-11.3361
▁Mexico	-11.3361
▁Service	-11.3361
▁Technically	-11.3361
▁bluegrass	-11.3361
▁column	-11.3361
▁compatible	-11.3361
▁comprehend	-11.3361
▁concert	-11.3361
▁conviction	-11.3361
▁custody	-11.3361
▁ethics	-11.3361
▁garbage	-11.3361
▁identical	-11.3361
▁inaccurate	-11.3361
▁invocation	-11.3361
▁nickname	-11.3361
▁presidency	-11.3361
▁puppet	-11.3361
▁sensitive	-11.3361
▁societies	-11.3361
▁thumb	-11.3361
▁uninformed	-11.3361
▁whistle	-11.3361
▁Darwin	-11.3361
▁awkward	-11.3361
▁SHIT	-11.3361
▁dawg	-11.3361
▁regret	-11.3361
▁Karma	-11.3361
▁WHAT	-11.3361
▁approx	-11.3361
▁amendment	-11.3361
▁struck	-11.3361
▁wisdom	-11.3361
▁rural	-11.3361
▁National	-11.3361
▁rude	-11.3361
▁barrel	-11.3361
▁Arch	-11.3362
▁tolerant	-11.3362
▁Secretary	-11.3362
▁breast	-11.3362
prehensi	-11.3363
▁steam	-11.3364
▁intentionally	-11.3364
▁Almost	-11.3364
▁FROM	-11.3364
▁Robin	-11.3364
▁tick	-11.3364
▁pump	-11.3365
▁characteristic	-11.3365
▁elite	-11.3365
▁firearm	-11.3365
Hindu	-11.3366
▁Latin	-11.3366
▁foolish	-11.3366
▁secretary	-11.3367
▁competent	-11.3368
?!?!	-11.3369
▁employment	-11.3369
▁preference	-11.3374
▁Stay	-11.3374
▁scam	-11.3374
▁branches	-11.3374
hore	-11.3375
▁NYC	-11.3375
▁spring	-11.3379
▁coverage	-11.338
▁MSM	-11.3381
▁campus	-11.3382
fortune	-11.3384
▁Might	-11.3385
▁constitutional	-11.3385
▁equality	-11.3386
▁laser	-11.3386
▁lowest	-11.3386
▁pill	-11.3388
▁subjective	-11.3389
▁voters	-11.339
▁rail	-11.3391
▁march	-11.3397
▁commentary	-11.3401
▁symbolic	-11.3408
▁Wasn	-11.3419
▁nit	-11.3434
norm	-11.3466
▁automat	-11.3472
▁triple	-11.3488
▁bike	-11.3517
▁3.5	-11.3539
ialis	-11.3541
▁grass	-11.356
900	-11.3582
stone	-11.3615
7%	-11.3623
▁Yea	-11.3649
ISS	-11.3671
▁skinn	-11.3718
Space	-11.3725
section	-11.3734
wordpress	-11.3741
▁grad	-11.3776
compose	-11.3795
▁educat	-11.3798
standing	-11.3806
▁panic	-11.3816
dictionary	-11.3825
complete	-11.3825
release	-11.3825
corporate	-11.3825
against	-11.3826
Obama	-11.3826
white	-11.3828
▁attract	-11.3834
▁perceive	-11.3843
▁dirt	-11.3869
Now	-11.3878
▁bonus	-11.3878
=12296	-11.3887
twitter	-11.3887
▁sponsor	-11.3887
WHERE	-11.3887
‘	-11.3887
▁Bullshit	-11.3887
▁Certainly	-11.3887
▁Chrome	-11.3887
▁DSLR	-11.3887
▁Dawkins	-11.3887
▁Enjoy	-11.3887
▁Facebook	-11.3887
▁Mexican	-11.3887
▁Regardless	-11.3887
▁Upmodded	-11.3887
▁YEAH	-11.3887
▁ancestors	-11.3887
▁calories	-11.3887
▁cloud	-11.3887
▁constitute	-11.3887
▁cynical	-11.3887
▁dichotomy	-11.3887
▁dishonest	-11.3887
▁disregard	-11.3887
▁elaborate	-11.3887
▁frustrating	-11.3887
▁happily	-11.3887
▁hypocrite	-11.3887
▁imaginary	-11.3887
▁incompetent	-11.3887
▁occupying	-11.3887
▁offspring	-11.3887
▁opponent	-11.3887
▁parameter	-11.3887
▁paranoid	-11.3887
▁procedure	-11.3887
▁professor	-11.3887
▁refresh	-11.3887
▁releasing	-11.3887
▁shadow	-11.3887
▁speculation	-11.3887
▁unemployed	-11.3887
▁entitled	-11.3887
▁grandmother	-11.3887
▁receiving	-11.3887
▁vegan	-11.3887
▁memories	-11.3887
▁smear	-11.3887
▁Debian	-11.3887
▁chief	-11.3887
▁healthcare	-11.3887
▁salary	-11.3887
▁Reserve	-11.3887
▁brush	-11.3887
▁vendor	-11.3887
▁segment	-11.3887
▁query	-11.3887
▁relax	-11.3887
▁carbon	-11.3887
ifiable	-11.3887
▁asleep	-11.3887
▁infringe	-11.3887
▁shortcut	-11.3887
▁amateur	-11.3888
▁Brown	-11.3888
▁commission	-11.3888
▁prompt	-11.3888
▁sneak	-11.3888
▁headache	-11.3888
▁suppress	-11.3888
▁Blackwater	-11.3888
▁generous	-11.3888
▁afterwards	-11.3888
▁alarm	-11.3888
promoting	-11.3888
▁modded	-11.3888
▁Freedom	-11.3889
▁kiss	-11.3889
▁Believ	-11.3889
capita	-11.389
▁generic	-11.389
▁indoctrination	-11.389
▁mindset	-11.389
▁Intel	-11.3891
▁IDF	-11.3891
▁Auto	-11.3891
▁Rather	-11.3891
▁layout	-11.3892
▁illusion	-11.3894
▁reproducti	-11.3894
skeptic	-11.3894
▁Left	-11.3895
▁unknown	-11.3895
▁!=	-11.3895
▁singing	-11.3897
▁priority	-11.3897
▁4.2	-11.3897
▁specialized	-11.3897
▁colon	-11.3898
▁infection	-11.3898
▁tolerate	-11.3899
hannel	-11.3899
▁ETA	-11.3901
▁Death	-11.3902
▁fairness	-11.3902
▁2.0	-11.3903
▁pitch	-11.3905
▁slim	-11.3912
▁Lots	-11.3912
▁Bank	-11.3914
▁rating	-11.3917
▁coke	-11.3921
ception	-11.3922
▁dry	-11.3922
▁tail	-11.3923
▁cough	-11.3932
alyze	-11.3938
▁bankruptc	-11.3944
▁Union	-11.3953
albums	-11.396
▁suprem	-11.3999
▁Yahoo	-11.4047
▁poke	-11.4086
▁remov	-11.4127
▁Palestinian	-11.4128
▁pour	-11.4139
▁sport	-11.4144
eeee	-11.4227
rogen	-11.4235
▁til	-11.4258
▁Qua	-11.4296
solely	-11.4311
▁divers	-11.4317
fair	-11.4342
▁blur	-11.4366
nnn	-11.4374
Book	-11.438
moderate	-11.438
sarcasm	-11.4381
strong	-11.4381
“	-11.4381
Also	-11.4381
question	-11.4381
yeah	-11.4381
explain	-11.4382
damn	-11.4384
wood	-11.4384
EDIT	-11.4385
daily	-11.4386
whatever	-11.4388
track	-11.4398
▁expose	-11.4399
▁precise	-11.442
▁apparent	-11.442
spam	-11.4425
▁whil	-11.4426
clusion	-11.4441
▁WHO	-11.4442
▁censor	-11.4442
Agnostic	-11.4443
Script	-11.4443
▁Similar	-11.4443
▁obtain	-11.4443
▁Communist	-11.4443
▁Definitely	-11.4443
▁Greece	-11.4443
▁Joshua	-11.4443
▁Muntather	-11.4443
▁Security	-11.4443
▁Shepherd	-11.4443
▁TIME	-11.4443
▁agricultural	-11.4443
▁attorney	-11.4443
▁colleague	-11.4443
▁combined	-11.4443
▁communities	-11.4443
▁consumption	-11.4443
▁criteria	-11.4443
▁dialog	-11.4443
▁embarrassed	-11.4443
▁immense	-11.4443
▁jealous	-11.4443
▁libertarian	-11.4443
▁liquid	-11.4443
▁mathematics	-11.4443
▁metaphor	-11.4443
▁ordinary	-11.4443
▁pixel	-11.4443
▁purchasing	-11.4443
▁swimming	-11.4443
▁technologies	-11.4443
▁vector	-11.4443
extremist	-11.4443
▁Computer	-11.4443
▁Spanish	-11.4443
▁Thomas	-11.4443
▁Vegas	-11.4443
▁contrast	-11.4443
▁explosion	-11.4443
▁tribal	-11.4443
▁unicorn	-11.4443
▁ocean	-11.4443
▁puzzle	-11.4443
▁wheat	-11.4443
▁Animal	-11.4443
▁compelling	-11.4443
▁singular	-11.4443
▁Knight	-11.4443
▁agencies	-11.4443
▁journalism	-11.4443
▁vocal	-11.4443
washington	-11.4443
▁buzz	-11.4443
▁decline	-11.4443
▁flood	-11.4443
▁probable	-11.4443
▁Fixed	-11.4443
▁DUI	-11.4443
▁Tyson	-11.4443
▁orientation	-11.4443
▁ultra	-11.4443
▁harsh	-11.4443
▁proceed	-11.4443
▁clone	-11.4443
▁FSM	-11.4443
▁sharp	-11.4444
▁derive	-11.4444
▁joking	-11.4444
▁queen	-11.4444
▁sperm	-11.4444
▁depict	-11.4444
▁MORE	-11.4444
▁daddy	-11.4444
▁mild	-11.4445
▁gym	-11.4445
▁minister	-11.4446
▁rewrite	-11.4446
▁Claus	-11.4447
▁explore	-11.4448
▁petty	-11.4448
cinema	-11.4448
▁Kids	-11.4448
▁Boost	-11.4449
minent	-11.4451
▁consist	-11.4451
scandal	-11.4452
▁2009	-11.4452
▁blast	-11.4452
▁preferred	-11.4453
imageshack	-11.4453
▁2012	-11.4454
▁survival	-11.4454
▁conform	-11.4454
▁couch	-11.4454
▁facebook	-11.4455
▁assets	-11.4455
▁flee	-11.4456
▁Grow	-11.4456
▁harmless	-11.4458
▁confession	-11.4459
▁Scala	-11.4459
▁wallet	-11.446
▁2001	-11.4464
▁christianity	-11.447
▁biz	-11.4473
theistic	-11.4475
▁pronounce	-11.448
▁pew	-11.4485
▁Jones	-11.4491
▁admin	-11.4501
topic	-11.4546
0000	-11.4558
HHHHHHHHH	-11.4575
▁pink	-11.4585
introduction	-11.4593
▁Australian	-11.4599
ASS	-11.4624
paste	-11.4683
▁eff	-11.4687
constructive	-11.469
▁cigarette	-11.4715
▁typo	-11.472
▁capitalize	-11.4724
EAD	-11.4745
▁rhetoric	-11.4871
▁unaware	-11.4872
BSD	-11.4872
ripped	-11.4879
▁capabilit	-11.4884
▁resign	-11.4888
thical	-11.4897
admitting	-11.4942
▁surviv	-11.4956
creative	-11.4968
Super	-11.4969
Bush	-11.4969
could	-11.497
State	-11.4972
project	-11.4973
▁stripp	-11.4975
sorry	-11.498
shoot	-11.4986
▁arrive	-11.4987
▁Aww	-11.5007
▁immediate	-11.5008
ologi	-11.5011
▁blank	-11.5028
/2006/0	-11.5031
HTML	-11.5031
▁firebomb	-11.5031
▁genital	-11.5031
nacceptable	-11.5031
‽	-11.5031
▁Additionally	-11.5031
▁Correct	-11.5031
▁Craig	-11.5031
▁Middle	-11.5031
▁Natural	-11.5031
▁September	-11.5031
▁WWII	-11.5031
▁approval	-11.5031
▁categories	-11.5031
▁centuries	-11.5031
▁ceremony	-11.5031
▁contrary	-11.5031
▁conventional	-11.5031
▁cooperation	-11.5031
▁demographic	-11.5031
▁discourage	-11.5031
▁elephant	-11.5031
▁expansion	-11.5031
▁extensive	-11.5031
▁grandfather	-11.5031
▁hypocritical	-11.5031
▁implied	-11.5031
▁industries	-11.5031
▁jewish	-11.5031
▁knife	-11.5031
▁misunderstood	-11.5031
▁persecution	-11.5031
▁pizza	-11.5031
▁scumbag	-11.5031
▁semester	-11.5031
▁GOOD	-11.5031
▁despise	-11.5031
▁judging	-11.5031
▁literature	-11.5031
▁pilot	-11.5031
▁reputation	-11.5031
▁solving	-11.5031
▁spectrum	-11.5031
▁Dawg	-11.5031
▁bounce	-11.5031
▁lulz	-11.5031
▁silent	-11.5031
▁ounce	-11.5031
▁NEW	-11.5031
▁Unix	-11.5031
▁essay	-11.5031
▁functionality	-11.5031
▁Business	-11.5031
▁CAPS	-11.5031
▁AIDS	-11.5031
▁closing	-11.5031
▁Wrong	-11.5031
▁FTW	-11.5031
▁fetish	-11.5031
▁muscle	-11.5031
▁module	-11.5031
▁binary	-11.5031
▁behalf	-11.5031
▁URL	-11.5031
▁properties	-11.5031
▁sensor	-11.5031
▁fansub	-11.5031
▁Six	-11.5031
▁compress	-11.5032
▁CIA	-11.5032
▁VISI	-11.5032
▁blogspam	-11.5032
▁steer	-11.5032
▁Everybody	-11.5032
sniff	-11.5032
▁smug	-11.5033
JPG	-11.5033
▁pardon	-11.5033
▁History	-11.5033
▁fanboy	-11.5033
▁repair	-11.5033
▁charging	-11.5033
▁wander	-11.5033
▁whale	-11.5033
▁Barack	-11.5033
▁snap	-11.5033
▁tonight	-11.5034
cfm	-11.5034
▁Daily	-11.5034
uuuu	-11.5035
▁dodge	-11.5035
▁Robert	-11.5035
▁blanket	-11.5035
▁Strange	-11.5035
▁mount	-11.5035
▁division	-11.5035
electoral	-11.5036
▁scripture	-11.5036
▁furry	-11.5036
▁consensual	-11.5036
Reason	-11.5036
▁household	-11.5036
▁pride	-11.5036
▁china	-11.5036
▁missile	-11.5036
▁establishment	-11.5037
▁precious	-11.5037
▁denial	-11.5037
▁Ugh	-11.5037
▁discount	-11.5038
▁Things	-11.5039
▁80%	-11.504
▁shill	-11.504
▁strain	-11.5041
▁sudo	-11.5041
scape	-11.5042
▁RAM	-11.5042
▁lick	-11.5042
vapor	-11.5044
▁duty	-11.5044
▁possession	-11.5044
▁Mind	-11.5045
ACT	-11.5045
▁shout	-11.5045
▁addiction	-11.5049
▁tack	-11.505
▁$25	-11.5053
lliance	-11.5053
▁repos	-11.5089
▁pose	-11.5091
AAAAAAA	-11.5091
▁martia	-11.5103
ativity	-11.5156
oops	-11.5165
gressive	-11.5176
cross	-11.5183
corn	-11.5226
eanu	-11.524
[1]	-11.5274
▁evolutionar	-11.5358
Even	-11.5393
TAL	-11.5424
▁Merr	-11.5458
987	-11.5502
dental	-11.5517
present	-11.5587
OOOO	-11.5591
plain	-11.5591
dynamic	-11.5593
piracy	-11.5594
fashion	-11.5594
regardless	-11.5594
discussion	-11.5594
economic	-11.5594
choice	-11.5594
religion	-11.5594
important	-11.5594
before	-11.5594
opinion	-11.5594
quote	-11.5595
trust	-11.5596
general	-11.5597
service	-11.56
large	-11.5602
current	-11.5603
▁Home	-11.5605
six	-11.5607
keep	-11.5609
▁pac	-11.5624
▁guilt	-11.5636
▁infect	-11.5643
Digital	-11.5656
occupied	-11.5656
▁hijack	-11.5656
ouvenir	-11.5656
▁Arlington	-11.5656
▁Luckily	-11.5656
▁McDonald	-11.5656
▁NEVER	-11.5656
▁Thursday	-11.5656
▁Wednesday	-11.5656
▁YouTube	-11.5656
▁Youtube	-11.5656
▁affiliate	-11.5656
▁affirm	-11.5656
▁breakfast	-11.5656
▁calculate	-11.5656
▁catholic	-11.5656
▁confident	-11.5656
▁curiosity	-11.5656
▁deliberately	-11.5656
▁dominant	-11.5656
▁frequency	-11.5656
▁imagination	-11.5656
▁monogamy	-11.5656
▁obscure	-11.5656
▁overwhelming	-11.5656
▁possibilities	-11.5656
▁proprietary	-11.5656
▁puppies	-11.5656
▁separation	-11.5656
▁sociopath	-11.5656
▁spaghetti	-11.5656
▁subscription	-11.5656
▁subsidies	-11.5656
▁tangible	-11.5656
▁volunteer	-11.5656
▁Family	-11.5656
▁Reagan	-11.5656
▁Wilden	-11.5656
▁damaging	-11.5656
▁eternal	-11.5656
▁jewelry	-11.5656
▁plaintiff	-11.5656
▁rabbit	-11.5656
▁spawn	-11.5656
▁treasur	-11.5656
▁Agnosticism	-11.5656
▁FISA	-11.5656
▁chapter	-11.5656
▁packaging	-11.5656
▁utiliz	-11.5656
▁courage	-11.5656
▁Trust	-11.5656
▁alternate	-11.5656
▁likelihood	-11.5656
▁nerves	-11.5656
▁consult	-11.5656
▁disprove	-11.5656
▁lonely	-11.5656
▁wound	-11.5656
▁April	-11.5656
▁loony	-11.5656
▁TNG	-11.5656
▁drown	-11.5656
▁glance	-11.5656
▁smash	-11.5656
▁ritual	-11.5656
▁computing	-11.5656
▁drove	-11.5656
▁overnight	-11.5656
▁:-(	-11.5656
▁Source	-11.5656
▁BBC	-11.5656
▁Royal	-11.5656
▁millionaire	-11.5656
▁limb	-11.5656
▁phase	-11.5656
▁impose	-11.5656
▁tolerance	-11.5656
▁Radiohead	-11.5656
▁Health	-11.5657
▁explode	-11.5657
▁Click	-11.5657
▁transaction	-11.5657
▁Center	-11.5657
▁teenager	-11.5657
▁cried	-11.5657
rrrrr	-11.5657
Search	-11.5657
▁baseball	-11.5658
▁spiritual	-11.5658
▁economist	-11.5658
EEEE	-11.5658
▁hostile	-11.5659
▁indication	-11.5659
▁rubber	-11.5659
nvestigate	-11.5659
▁organism	-11.5659
▁prostitution	-11.5659
▁proposition	-11.5659
▁DOES	-11.5659
▁tribe	-11.566
▁emulat	-11.566
▁importance	-11.566
▁PRO	-11.566
▁$1000	-11.5661
▁slavery	-11.5661
▁scarce	-11.5661
▁abhor	-11.5661
▁worthwhile	-11.5662
▁resent	-11.5662
▁Know	-11.5662
▁accessible	-11.5662
▁continuous	-11.5663
▁authorities	-11.5665
▁accountability	-11.5665
▁slack	-11.5666
▁shade	-11.5671
▁spare	-11.5672
▁rally	-11.5672
▁gray	-11.568
▁grip	-11.5681
Programming	-11.5695
largest	-11.571
▁compassion	-11.5778
yahoo	-11.5786
▁drama	-11.5805
passage	-11.6001
▁consequence	-11.6009
wink	-11.6039
held	-11.6077
▁graph	-11.6181
Data	-11.6211
sustainable	-11.6243
claim	-11.6251
quality	-11.6258
category	-11.6259
special	-11.6259
window	-11.626
global	-11.6261
document	-11.6261
politics	-11.6261
liberal	-11.6261
protect	-11.6261
Yeah	-11.6261
everyone	-11.6261
truth	-11.6262
From	-11.6262
Time	-11.6262
Edit	-11.6263
scale	-11.6268
due	-11.6269
▁oblig	-11.6299
▁govern	-11.6308
▁distinct	-11.6316
▁quest	-11.6318
▁Univers	-11.6319
thanol	-11.6321
Fractal	-11.6323
scientologist	-11.6323
▁Gaza	-11.6323
▁accelerat	-11.6323
▁bureaucrac	-11.6323
▁definitive	-11.6323
▁slaughter	-11.6323
embedded	-11.6323
voluntary	-11.6323
▁Amazing	-11.6323
▁Britain	-11.6323
▁College	-11.6323
▁Eventually	-11.6323
▁Evolution	-11.6323
▁Jordan	-11.6323
▁Kennedy	-11.6323
▁Toyota	-11.6323
▁Tuesday	-11.6323
▁abilities	-11.6323
▁affiliation	-11.6323
▁anarchy	-11.6323
▁beneficial	-11.6323
▁browsing	-11.6323
▁calculator	-11.6323
▁celebrity	-11.6323
▁certificate	-11.6323
▁comprehension	-11.6323
▁controversy	-11.6323
▁distinguish	-11.6323
▁embrace	-11.6323
▁emergency	-11.6323
▁exponential	-11.6323
▁innovation	-11.6323
▁interrogation	-11.6323
▁monopolies	-11.6323
▁perpetrat	-11.6323
▁pesticide	-11.6323
▁privacy	-11.6323
▁rainbow	-11.6323
▁sovereignty	-11.6323
▁twelve	-11.6323
▁uncomfortable	-11.6323
▁Answer	-11.6323
▁Houston	-11.6323
▁Public	-11.6323
▁Segway	-11.6323
▁Solaris	-11.6323
▁absorb	-11.6323
▁affairs	-11.6323
▁applicable	-11.6323
▁diminish	-11.6323
▁execute	-11.6323
▁immature	-11.6323
▁misspell	-11.6323
▁reboot	-11.6323
▁skull	-11.6323
▁unreasonable	-11.6323
▁deviance	-11.6323
▁inclined	-11.6323
▁intolerance	-11.6323
▁impeach	-11.6323
▁unusual	-11.6323
▁Honda	-11.6323
▁fraction	-11.6323
▁sector	-11.6323
▁debating	-11.6323
▁indicator	-11.6323
▁protein	-11.6323
▁Adobe	-11.6323
▁injustice	-11.6323
▁garden	-11.6323
▁grabbed	-11.6323
▁skeptical	-11.6323
▁Senator	-11.6323
▁depressed	-11.6323
▁garage	-11.6323
feminist	-11.6323
▁LCD	-11.6323
▁polar	-11.6323
quantum	-11.6323
▁basketball	-11.6323
▁transcend	-11.6323
▁compiling	-11.6323
▁depth	-11.6323
albeit	-11.6323
▁Brian	-11.6323
▁cotton	-11.6323
▁Blue	-11.6323
▁FBI	-11.6323
▁Easy	-11.6323
tinyurl	-11.6323
▁Food	-11.6323
▁null	-11.6323
▁STOP	-11.6323
▁regime	-11.6323
▁Angel	-11.6323
AskReddit	-11.6323
▁arabs	-11.6323
▁dentist	-11.6323
▁replies	-11.6324
▁worm	-11.6324
▁architecture	-11.6324
▁arrow	-11.6324
▁alright	-11.6324
▁lizard	-11.6324
config	-11.6325
▁tension	-11.6325
▁portray	-11.6326
▁Weird	-11.6326
▁thick	-11.6326
▁outfit	-11.6326
▁hipster	-11.6326
▁Glad	-11.6327
▁mask	-11.6327
▁Odd	-11.6327
▁demoniz	-11.6328
▁standpoint	-11.6328
▁Treat	-11.6329
▁commute	-11.6329
▁endorse	-11.6331
storage	-11.6332
▁slang	-11.6334
▁thy	-11.6335
333	-11.6335
▁brake	-11.6337
▁refra	-11.6345
Team	-11.6352
▁peak	-11.6377
righteous	-11.6377
▁organ	-11.6483
logged	-11.6597
▁WHI	-11.66
▁inhale	-11.6605
passionate	-11.6612
▁Chris	-11.6742
105	-11.6778
lapping	-11.681
▁margin	-11.6815
oooooo	-11.6831
Climat	-11.6855
roughly	-11.6913
Larry	-11.6935
awareness	-11.6946
reference	-11.6973
OMG	-11.6974
program	-11.6975
standard	-11.6975
specific	-11.6975
Israel	-11.6975
written	-11.6975
anything	-11.6975
child	-11.6976
music	-11.6976
first	-11.6976
through	-11.6976
political	-11.6977
▁REAL	-11.6977
Good	-11.6977
rational	-11.6979
Who	-11.6985
▁amaze	-11.6993
speak	-11.6999
▁possess	-11.7021
hocolate	-11.7035
.0/24	-11.7035
uclear	-11.7036
gallery	-11.7037
punctuation	-11.7037
wrapped	-11.7037
▁emphasis	-11.7037
▁redneck	-11.7037
▁unrealistic	-11.7037
universities	-11.7037
▁========	-11.7037
▁ALWAYS	-11.7037
▁Congratulations	-11.7037
▁Downmodded	-11.7037
▁Enterprise	-11.7037
▁Mountain	-11.7037
▁PLEASE	-11.7037
▁Slackware	-11.7037
▁Virginia	-11.7037
▁approximately	-11.7037
▁association	-11.7037
▁atmosphere	-11.7037
▁celebrating	-11.7037
▁coincidence	-11.7037
▁constituents	-11.7037
▁enterprise	-11.7037
▁exclude	-11.7037
▁happier	-11.7037
▁homophobic	-11.7037
▁integrity	-11.7037
▁jurisdiction	-11.7037
▁mandatory	-11.7037
▁manslaughter	-11.7037
▁maturity	-11.7037
▁mercury	-11.7037
▁miracle	-11.7037
▁muslim	-11.7037
▁opposing	-11.7037
▁participants	-11.7037
▁patience	-11.7037
▁rambling	-11.7037
▁revenue	-11.7037
▁sketch	-11.7037
▁snark	-11.7037
▁studio	-11.7037
▁supplies	-11.7037
▁tyranny	-11.7037
▁velocity	-11.7037
▁volcano	-11.7037
▁wolves	-11.7037
▁WORK	-11.7037
▁credibility	-11.7037
▁ninja	-11.7037
▁stumble	-11.7037
▁Found	-11.7037
▁Ponzi	-11.7037
▁alpha	-11.7037
▁mammal	-11.7037
▁organised	-11.7037
▁square	-11.7037
▁Coleman	-11.7037
▁Focus	-11.7037
▁legacy	-11.7037
▁Wonder	-11.7037
▁lyrics	-11.7037
▁informative	-11.7037
▁smack	-11.7037
bedience	-11.7037
▁Third	-11.7037
▁colour	-11.7037
▁inspiration	-11.7037
▁RNA	-11.7037
▁conceal	-11.7037
▁wreck	-11.7037
▁miserable	-11.7037
▁Soviet	-11.7037
▁harass	-11.7037
▁heritage	-11.7037
▁sterile	-11.7037
desirable	-11.7037
▁dictate	-11.7037
▁liability	-11.7037
▁blade	-11.7037
▁Dollar	-11.7037
▁Sundin	-11.7037
▁minerals	-11.7037
▁slander	-11.7037
▁turtle	-11.7037
▁judicia	-11.7037
▁Half	-11.7037
▁misery	-11.7037
▁Update	-11.7037
inspired	-11.7037
▁distort	-11.7038
▁cowboy	-11.7038
▁ashamed	-11.7038
▁misunderstand	-11.7038
▁:::	-11.7038
▁teapot	-11.7038
▁censorship	-11.7038
▁Incest	-11.7038
espect	-11.7038
▁scientology	-11.7038
▁shuttle	-11.7038
▁degrad	-11.7038
▁audit	-11.7039
▁insect	-11.7039
igorous	-11.7039
▁proclaim	-11.7039
▁transform	-11.7039
▁interfere	-11.704
▁Monday	-11.704
▁Lisp	-11.704
▁leadership	-11.704
▁membership	-11.704
divine	-11.7041
▁allocate	-11.7041
▁lord	-11.7042
Reilly	-11.7042
▁Break	-11.7043
▁coast	-11.7046
partisan	-11.7046
View	-11.705
Cause	-11.7057
film	-11.7058
OOOOOOO	-11.7074
$$$$$$$$$$$$$$$$	-11.7111
▁resembl	-11.7148
▁EVER	-11.7353
artridge	-11.745
▁attribut	-11.7455
▁synthe	-11.746
fusion	-11.7554
▁disrespect	-11.7587
seemingly	-11.7588
▁secur	-11.7653
▁weigh	-11.7682
Long	-11.7723
iiii	-11.7727
official	-11.7744
crime	-11.7744
american	-11.7744
Cheney	-11.7744
violent	-11.7744
bound	-11.7744
secret	-11.7744
flash	-11.7744
People	-11.7744
Atheism	-11.7744
faith	-11.7744
writing	-11.7744
Maybe	-11.7744
profit	-11.7744
girlfriend	-11.7745
wrong	-11.7745
false	-11.7745
Just	-11.7745
movie	-11.7746
easy	-11.7747
▁Upvote	-11.7763
control	-11.7795
ntellectual	-11.7795
etween	-11.7803
▁architect	-11.7805
▁stereo	-11.7806
/2008/11/	-11.7806
/2008/12/18/	-11.7806
▁FAIL	-11.7806
Pakistan	-11.7806
premarital	-11.7806
satisfied	-11.7806
и	-11.7806
▁ABOUT	-11.7806
▁Afrikaans	-11.7806
▁Detroit	-11.7806
▁District	-11.7806
▁Fedora	-11.7806
▁Fortunately	-11.7806
▁Jefferson	-11.7806
▁Judaism	-11.7806
▁Libertarian	-11.7806
▁Photoshop	-11.7806
▁Zimbabwe	-11.7806
▁apologies	-11.7806
▁circumcised	-11.7806
▁congregation	-11.7806
▁contributing	-11.7806
▁critique	-11.7806
▁decrease	-11.7806
▁disadvantage	-11.7806
▁easiest	-11.7806
▁encrypt	-11.7806
▁engaging	-11.7806
▁frozen	-11.7806
▁hypocrisy	-11.7806
▁imprison	-11.7806
▁integration	-11.7806
▁lebanon	-11.7806
▁liberties	-11.7806
▁masturbation	-11.7806
▁mediocre	-11.7806
▁nsfw	-11.7806
▁pregnant	-11.7806
▁significance	-11.7806
▁subsequent	-11.7806
▁suspend	-11.7806
▁symptom	-11.7806
▁terribly	-11.7806
▁totalitarian	-11.7806
▁tragedy	-11.7806
▁tremendous	-11.7806
▁unexpected	-11.7806
▁unpleasant	-11.7806
▁worries	-11.7806
ELECT	-11.7806
▁Baptist	-11.7806
▁Buffet	-11.7806
▁GREAT	-11.7806
▁Liberal	-11.7806
▁OPEC	-11.7806
▁authoritative	-11.7806
▁caliber	-11.7806
▁condescen	-11.7806
▁disguise	-11.7806
▁fuzzy	-11.7806
▁misinterpret	-11.7806
▁poverty	-11.7806
▁probability	-11.7806
▁surgery	-11.7806
rguably	-11.7806
▁Gallop	-11.7806
▁Gentoo	-11.7806
▁Sweden	-11.7806
▁Zango	-11.7806
▁computation	-11.7806
▁hazard	-11.7806
▁premium	-11.7806
▁resolve	-11.7806
▁Walmart	-11.7806
▁circulat	-11.7806
▁configure	-11.7806
▁crook	-11.7806
▁gesture	-11.7806
▁leather	-11.7806
▁cliche	-11.7806
▁ideological	-11.7806
▁hormon	-11.7806
▁Doctor	-11.7806
▁Nethack	-11.7806
▁crude	-11.7806
▁injury	-11.7806
▁SUV	-11.7806
▁deviation	-11.7806
▁venture	-11.7806
▁restraint	-11.7806
▁USSR	-11.7806
▁compensate	-11.7806
▁depressing	-11.7806
▁buffer	-11.7806
▁autistic	-11.7806
▁DIE	-11.7807
▁exceed	-11.7807
▁Title	-11.7807
▁finite	-11.7807
▁german	-11.7807
▁Present	-11.7807
swaffelen	-11.7807
▁foreskin	-11.7807
▁funeral	-11.7807
OOOOOOOOOOOOOOOO	-11.7807
darwin	-11.7807
▁8.10	-11.7807
▁Scheme	-11.7807
▁versa	-11.7807
▁disabled	-11.7807
▁fetus	-11.7807
▁Javascript	-11.7807
▁animation	-11.7807
▁Price	-11.7807
▁CSS	-11.7807
intensive	-11.7807
▁transmission	-11.7807
▁emerge	-11.7808
widget	-11.7808
▁swallow	-11.7808
▁cartel	-11.7808
smith	-11.7809
▁Color	-11.7809
fossil	-11.781
▁bald	-11.7813
▁nurs	-11.7813
▁FOO	-11.7813
▁whip	-11.7815
umbling	-11.7816
isclaimer	-11.7817
▁Audi	-11.7822
boston	-11.7823
Round	-11.7829
Story	-11.784
▁formula	-11.7843
Code	-11.7851
▁merge	-11.7865
oriented	-11.7916
Control	-11.7972
▁practic	-11.827
▁negat	-11.8284
shrug	-11.8338
▁contemplat	-11.8449
Common	-11.8577
defense	-11.8577
positive	-11.8578
focus	-11.8578
language	-11.8578
middle	-11.8578
English	-11.8578
civil	-11.8578
software	-11.8578
number	-11.8578
Windows	-11.8578
marriage	-11.8578
experience	-11.8578
Look	-11.8578
second	-11.8578
Great	-11.8578
▁accord	-11.8583
color	-11.8585
credit	-11.859
▁regulate	-11.8595
▁remarkabl	-11.8597
ommandments	-11.8598
▁confess	-11.8616
▁Euro	-11.8638
н	-11.864
о	-11.864
▁RABBLE	-11.864
Journal	-11.864
▁Quebec	-11.864
▁Russell	-11.864
▁confiscate	-11.864
▁execution	-11.864
▁inappropriate	-11.864
▁neglect	-11.864
Beautiful	-11.864
drastically	-11.864
metaphysical	-11.864
pocalypse	-11.864
recognition	-11.864
▁Cleanse	-11.864
▁Evangelical	-11.864
▁Federation	-11.864
▁HUGE	-11.864
▁Keynes	-11.864
▁MUCH	-11.864
▁NASA	-11.864
▁November	-11.864
▁Quick	-11.864
▁Rumsfeld	-11.864
▁Safari	-11.864
▁Telstra	-11.864
▁Ultimately	-11.864
▁apartheid	-11.864
▁calculation	-11.864
▁challenging	-11.864
▁circuit	-11.864
▁clergy	-11.864
▁contribution	-11.864
▁declaration	-11.864
▁declaring	-11.864
▁district	-11.864
▁frustration	-11.864
▁identified	-11.864
▁injuries	-11.864
▁insensitive	-11.864
▁intervention	-11.864
▁investigation	-11.864
▁irresponsible	-11.864
▁ludicrous	-11.864
▁molecule	-11.864
▁negligence	-11.864
▁offendendo	-11.864
▁paranoia	-11.864
▁persuade	-11.864
▁prejudice	-11.864
▁primitive	-11.864
▁prospect	-11.864
▁stimulus	-11.864
▁substitute	-11.864
▁supplier	-11.864
▁syllable	-11.864
▁taxpayer	-11.864
▁uncertainty	-11.864
▁Capitalism	-11.864
▁Standard	-11.864
▁assignment	-11.864
▁scarcity	-11.864
▁sentience	-11.864
▁temporary	-11.864
!!!!!!!!!!!!!!!!	-11.864
Citizen	-11.864
▁Cruise	-11.864
▁Hillary	-11.864
▁firewall	-11.864
▁furries	-11.864
▁concede	-11.864
▁dammit	-11.864
IMIT	-11.864
▁Lynch	-11.864
▁empire	-11.864
▁french	-11.864
▁steriliz	-11.864
ʇ	-11.864
▁Gordon	-11.864
▁chamber	-11.864
▁injured	-11.864
▁located	-11.864
▁pigeon	-11.864
▁squad	-11.864
▁Friend	-11.864
▁Network	-11.864
▁elitist	-11.864
▁intolerant	-11.864
▁pledge	-11.864
▁GNU	-11.864
▁connotation	-11.864
▁prince	-11.864
▁contempt	-11.864
▁verify	-11.864
▁Problem	-11.864
▁afternoon	-11.864
immune	-11.864
rkeley	-11.864
homophobe	-11.864
▁Truth	-11.864
▁rotten	-11.864
▁craving	-11.864
▁medication	-11.864
▁predator	-11.864
▁Compare	-11.864
▁refute	-11.864
▁Boston	-11.864
▁bulb	-11.864
▁Evil	-11.864
▁retain	-11.864
▁Rational	-11.864
▁whim	-11.864
▁filth	-11.864
▁village	-11.864
▁Dream	-11.864
▁Cuil	-11.864
Belief	-11.864
▁barrier	-11.864
▁Ctrl	-11.864
▁Father	-11.864
▁whine	-11.864
▁entities	-11.864
▁rumor	-11.864
▁xtian	-11.864
epresentative	-11.864
▁Fear	-11.8641
▁horrific	-11.8641
▁Legal	-11.8641
▁align	-11.8642
Detail	-11.8642
▁Logic	-11.8642
savior	-11.8643
wagon	-11.8644
▁Thai	-11.8646
nimated	-11.8647
▁Joke	-11.8649
Simple	-11.8649
RPG	-11.8649
Child	-11.8649
▁perpetuate	-11.8652
▁replica	-11.8655
▁SHE	-11.8659
▁sync	-11.8665
advert	-11.8668
▁BAC	-11.867
▁senat	-11.8673
excus	-11.8675
Daddy	-11.869
aaaaaaa	-11.8692
migrat	-11.8704
illionaire	-11.8716
▁struggl	-11.8765
contradictory	-11.8774
THO	-11.8897
condemned	-11.8905
▁eliminat	-11.9049
FORE	-11.9368
access	-11.9474
▁cloth	-11.9482
criminal	-11.9486
Clark	-11.9486
linux	-11.9486
according	-11.9487
First	-11.9487
technology	-11.9487
private	-11.9487
follow	-11.9487
college	-11.9487
crazy	-11.9487
limited	-11.9487
problem	-11.9487
church	-11.9487
probably	-11.9487
Atheist	-11.9487
write	-11.9495
▁qualifie	-11.9504
understand	-11.9516
▁concur	-11.9536
▁indoctrinat	-11.9544
/2005/0	-11.9548
Nietzsche	-11.9549
fothel	-11.9549
▁availability	-11.9549
▁evident	-11.9549
▁exhaust	-11.9549
▁extinct	-11.9549
▁hominem	-11.9549
▁microsoft	-11.9549
▁principal	-11.9549
▁repetitive	-11.9549
▁scholar	-11.9549
FIRST	-11.9549
alienable	-11.9549
catastrophic	-11.9549
lainclothes	-11.9549
obsessed	-11.9549
▁AWESOME	-11.9549
▁Committee	-11.9549
▁Completely	-11.9549
▁DAWG	-11.9549
▁GTFO	-11.9549
▁Military	-11.9549
▁Nixon	-11.9549
▁October	-11.9549
▁Olympic	-11.9549
▁Patriot	-11.9549
▁SHEEPLE	-11.9549
▁Scientologist	-11.9549
▁Society	-11.9549
▁Timesplitters	-11.9549
▁Turkey	-11.9549
▁Twitter	-11.9549
▁Vancouver	-11.9549
▁adventure	-11.9549
▁arrangement	-11.9549
▁celebrities	-11.9549
▁collision	-11.9549
▁configuration	-11.9549
▁credential	-11.9549
▁dedicated	-11.9549
▁deluded	-11.9549
▁destructive	-11.9549
▁deterministic	-11.9549
▁dictionaries	-11.9549
▁experiencing	-11.9549
▁flexible	-11.9549
▁gigantic	-11.9549
▁intrinsic	-11.9549
▁irritating	-11.9549
▁lebanese	-11.9549
▁maintenance	-11.9549
▁monetary	-11.9549
▁optimization	-11.9549
▁philosopher	-11.9549
▁practitioner	-11.9549
▁primaries	-11.9549
▁protocol	-11.9549
▁pyramid	-11.9549
▁sensible	-11.9549
▁sequence	-11.9549
▁spreadsheet	-11.9549
▁territory	-11.9549
▁thumbnail	-11.9549
▁transparent	-11.9549
▁unpredictable	-11.9549
▁vegetables	-11.9549
▁widespread	-11.9549
▁Alaska	-11.9549
▁Beatles	-11.9549
▁Coulter	-11.9549
▁Georgia	-11.9549
▁Hannity	-11.9549
▁KKK	-11.9549
▁Observe	-11.9549
▁STFU	-11.9549
▁Simpson	-11.9549
▁Yesterday	-11.9549
▁ambush	-11.9549
▁chinese	-11.9549
▁crossbow	-11.9549
▁dipshit	-11.9549
▁distress	-11.9549
▁dubious	-11.9549
▁encompass	-11.9549
▁hippies	-11.9549
▁league	-11.9549
▁proponent	-11.9549
▁purple	-11.9549
▁qualities	-11.9549
▁satisfy	-11.9549
▁surgeon	-11.9549
▁vessel	-11.9549
▁eBay	-11.9549
▁inspect	-11.9549
▁promotion	-11.9549
▁stomach	-11.9549
▁clarity	-11.9549
▁minivan	-11.9549
▁Excuse	-11.9549
▁FREE	-11.9549
▁dignity	-11.9549
▁overflow	-11.9549
ATUR	-11.9549
▁Newdow	-11.9549
▁Trillion	-11.9549
▁inflict	-11.9549
▁waterboarding	-11.9549
▁grease	-11.9549
▁reckless	-11.9549
Defense	-11.9549
▁THEIR	-11.9549
certified	-11.9549
michael	-11.9549
▁Algebra	-11.9549
▁Silver	-11.9549
▁insanity	-11.9549
▁razor	-11.9549
▁spiral	-11.9549
▁bulk	-11.9549
▁kook	-11.9549
▁Clown	-11.9549
▁Korea	-11.9549
▁devastat	-11.9549
Dikshit	-11.9549
implistic	-11.9549
▁committee	-11.9549
▁RIP	-11.9549
▁flesh	-11.9549
▁pleasant	-11.9549
▁unstable	-11.9549
▁costume	-11.9549
▁pacifis	-11.9549
▁proxy	-11.9549
▁salad	-11.9549
▁nightmare	-11.9549
▁mosque	-11.9549
▁italics	-11.9549
▁nude	-11.9549
▁visible	-11.9549
▁partition	-11.9549
▁Wood	-11.9549
▁Listen	-11.9549
▁bogus	-11.9549
▁particles	-11.9549
▁Always	-11.9549
▁detox	-11.9549
▁gloss	-11.9549
▁invoke	-11.9549
▁Lenin	-11.9549
▁lottery	-11.9549
▁Cross	-11.9549
Object	-11.955
▁Satan	-11.955
▁tangent	-11.955
aliasing	-11.955
▁sancti	-11.955
▁Feel	-11.955
Extreme	-11.955
▁99.9	-11.955
▁petrol	-11.955
▁invention	-11.955
Shift	-11.9551
▁royal	-11.9551
▁condone	-11.9552
Article	-11.9553
MMM	-11.9553
arcade	-11.9554
humour	-11.9554
▁dispar	-11.9555
▁blend	-11.9555
TRY	-11.9557
Install	-11.9558
Double	-11.9562
▁Organi	-11.9567
▁realiz	-11.957
collar	-11.9573
llusion	-11.9577
▁deducti	-11.9632
hopping	-11.9636
▁Fran	-11.9804
AAAAAAAAAAAAAAAA	-11.9848
ffective	-11.9978
itude	-12.0061
▁Radio	-12.0067
Sigh	-12.015
progress	-12.0237
SQL	-12.0304
photography	-12.0323
$$$$$$$$$$$$	-12.034
correct	-12.0397
▁encod	-12.0405
solution	-12.0481
Happy	-12.0486
{	-12.0486
Wikipedia	-12.0486
magazine	-12.0486
Change	-12.0486
practical	-12.0486
grammar	-12.0486
property	-12.0486
function	-12.0486
relevant	-12.0486
John	-12.0486
obvious	-12.0487
certain	-12.0487
answer	-12.0487
different	-12.0487
children	-12.0487
computer	-12.0487
Russia	-12.0488
▁profession	-12.0489
▁neuro	-12.0504
HAHAH	-12.0507
ROM	-12.0544
▁Secret	-12.0547
ɐ	-12.0549
▁Manifesto	-12.0549
е	-12.0549
▁hyperinflation	-12.0549
Apostrophe	-12.0549
convenience	-12.0549
ooooooooooooo	-12.0549
participation	-12.0549
ö	-12.0549
▁BITCH	-12.0549
▁Children	-12.0549
▁Country	-12.0549
▁Dictionary	-12.0549
▁Dymond	-12.0549
▁EVERYONE	-12.0549
▁Guantanamo	-12.0549
▁Holiday	-12.0549
▁Illinois	-12.0549
▁Kyoto	-12.0549
▁LOVE	-12.0549
▁OCaml	-12.0549
▁Politics	-12.0549
▁Possibly	-12.0549
▁Protocol	-12.0549
▁SHOULD	-12.0549
▁THANK	-12.0549
▁Vampire	-12.0549
▁WRONG	-12.0549
▁Yegge	-12.0549
▁anecdotal	-12.0549
▁anecdote	-12.0549
▁antelope	-12.0549
▁benevolent	-12.0549
▁buddhist	-12.0549
▁chemistry	-12.0549
▁communicating	-12.0549
▁compound	-12.0549
▁currencies	-12.0549
▁despicable	-12.0549
▁disgusted	-12.0549
▁escaping	-12.0549
▁exhibit	-12.0549
▁fabulous	-12.0549
▁facilitate	-12.0549
▁flexibility	-12.0549
▁frustrated	-12.0549
▁gradually	-12.0549
▁homicide	-12.0549
▁horizon	-12.0549
▁hurricane	-12.0549
▁hyperbole	-12.0549
▁interrupt	-12.0549
▁jQuery	-12.0549
▁luxury	-12.0549
▁masturbate	-12.0549
▁mechanics	-12.0549
▁misconception	-12.0549
▁misguided	-12.0549
▁oligarch	-12.0549
▁orthodox	-12.0549
▁procrastinate	-12.0549
▁snatch	-12.0549
▁straightforward	-12.0549
▁syndrome	-12.0549
▁unconscious	-12.0549
▁vaporizer	-12.0549
▁virtue	-12.0549
▁wavelength	-12.0549
▁yourselves	-12.0549
ǝ	-12.0549
▁CHANGE	-12.0549
▁Differen	-12.0549
▁Energy	-12.0549
▁NOTHING	-12.0549
▁Treasur	-12.0549
▁boycott	-12.0549
▁detention	-12.0549
▁dialect	-12.0549
▁felony	-12.0549
▁globe	-12.0549
▁nonetheless	-12.0549
▁nudity	-12.0549
▁obnoxious	-12.0549
▁organisation	-12.0549
▁sacred	-12.0549
▁slippery	-12.0549
▁telnet	-12.0549
▁varieties	-12.0549
▁DICK	-12.0549
▁bracket	-12.0549
▁frighten	-12.0549
▁humiliat	-12.0549
▁passenger	-12.0549
▁tariff	-12.0549
▁venue	-12.0549
▁verifiable	-12.0549
▁Friday	-12.0549
▁Mobile	-12.0549
▁booze	-12.0549
▁poetry	-12.0549
▁Balko	-12.0549
▁Elisha	-12.0549
▁acquire	-12.0549
▁debris	-12.0549
▁subtract	-12.0549
▁underwear	-12.0549
▁stroke	-12.0549
▁invading	-12.0549
▁zionist	-12.0549
▁Lenny	-12.0549
▁concise	-12.0549
▁orgasm	-12.0549
▁eagle	-12.0549
▁rabid	-12.0549
▁Brother	-12.0549
▁cruise	-12.0549
▁flush	-12.0549
▁PEW	-12.0549
▁Pretend	-12.0549
▁sanity	-12.0549
▁abolish	-12.0549
Mozilla	-12.0549
▁Prius	-12.0549
▁retreat	-12.0549
▁Beyon	-12.0549
▁overseas	-12.0549
▁pulp	-12.0549
▁serial	-12.0549
▁cream	-12.0549
▁wrist	-12.0549
▁intervene	-12.0549
▁patrol	-12.0549
2008121	-12.055
▁Penis	-12.055
▁dispose	-12.055
Charles	-12.0551
gadget	-12.0552
Bruce	-12.0552
▁glue	-12.0553
EXT	-12.0554
izzle	-12.0556
iraq	-12.0558
NBC	-12.0558
▁TRU	-12.0559
▁tranq	-12.058
▁provabl	-12.0589
Rahm	-12.0614
little	-12.0616
ookie	-12.0621
ccessibility	-12.0641
▁unbelievabl	-12.0703
eaves	-12.0782
HEY	-12.1209
ncluding	-12.1316
▁fortunate	-12.1424
substantial	-12.1547
LAW	-12.1579
regulated	-12.1597
entertainment	-12.1597
default	-12.1597
knock	-12.1597
analysis	-12.1597
legitimate	-12.1597
daughter	-12.1598
FUCK	-12.1598
economy	-12.1598
Please	-12.1598
YOU	-12.1601
▁manufacture	-12.162
▁economi	-12.1625
á	-12.4338
а	-12.4338
ɹ	-12.4338
·	-12.6005
è	-12.6005
ɯ	-12.6005
т	-12.6005
с	-12.6005
≤	-12.8005
í	-12.8005
ん	-12.8005
し	-12.8006
ı	-13.0505
ä	-13.0505
л	-13.0505
ḍ	-13.0505
ṇ	-13.0505
ʍ	-13.0505
い	-13.0506
з	-13.3838
д	-13.3838
コ	-13.3838
я	-13.3838
ן	-13.3838
ᴄ	-13.3838
ン	-13.3838
ç	-13.3838
°	-13.3838
ß	-13.3838
ð	-13.3838
ü	-13.3838
σ	-13.3838
р	-13.3838
╬	-13.3838
ɔ	-13.3838
ɟ	-13.3838
ɥ	-13.3839
↓	-13.3839
‫	-13.3839
せ	-13.3839
を	-13.3839
の	-13.3839
か	-13.3839
ら	-13.3839
ま	-13.3839
く	-13.3839
る	-13.3839
も	-13.3839
味	-13.3839
意	-13.384
は	-13.384
Δ	-13.8838
人	-13.8838
ᴏ	-13.8838
⋅	-13.8838
♥	-13.8838
ɪ	-13.8838
â	-13.8838
ō	-13.8838
ɴ	-13.8838
ʜ	-13.8838
μ	-13.8838
π	-13.8838
Т	-13.8838
ಠ	-13.8838
ᴀ	-13.8838
ᴇ	-13.8838
ᴛ	-13.8838
←	-13.8838
↑	-13.8838
→	-13.8838
。	-13.8838
日	-13.8838
ē	-13.8838
ó	-13.8838
ф	-13.8838
─	-13.8839
っ	-13.8839
な	-13.8839
た	-13.884
♪	-14.878
ニ	-14.8822
と	-14.8823
で	-14.8824
う	-14.8825
ъ	-14.8826
×	-14.8827
≠	-14.8828
€	-14.8829
в	-14.883
̇	-14.8831
ʎ	-14.8832
ï	-14.8833
§	-14.8834
п	-14.8835
à	-14.8836
¿	-14.8837
⁄	-14.8838
≈	-14.8838
╠	-14.8838
╣	-14.8838
◘	-14.8838
怒	-14.8838
ƃ	-14.8838
ʞ	-14.8838
ᴅ	-14.8838
ガ	-14.8838
ギ	-14.8838
グ	-14.8838
マ	-14.8838
ャ	-14.8838
動	-14.8838
Я	-14.8838
¢	-14.8838
®	-14.8838
Ü	-14.8838
ù	-14.8838
ú	-14.8838
ĭ	-14.8838
ʌ	-14.8838
И	-14.8838
к	-14.8838
м	-14.8838
ч	-14.8838
щ	-14.8838
؟	-14.8838
ᴜ	-14.8838
ᴡ	-14.8838
∞	-14.8838
⌫	-14.8838
╡	-14.8838
■	-14.8838
▼	-14.8838
●	-14.8838
♠	-14.8838
⸮	-14.8838
ち	-14.8838
ね	-14.8838
み	-14.8838
ゃ	-14.8838
や	-14.8838
キ	-14.8838
ナ	-14.8838
ノ	-14.8838
ハ	-14.8838
ヒ	-14.8838
ヨ	-14.8838
ル	-14.8838
偵	-14.8838
名	-14.8838
和	-14.8838
度	-14.8838
探	-14.8838
方	-14.8838
本	-14.8838
法	-14.8838
画	-14.8838
興	-14.8838
鬱	-14.8838
¡	-14.8838
ê	-14.8838
ə	-14.8838
С	-14.8838
ā	-14.8839
В	-14.8839
₣	-14.8839
₧	-14.8839
◙	-14.8839
☻	-14.8839
☼	-14.8839
お	-14.8839
ご	-14.8839
す	-14.8839
ク	-14.8839
レ	-14.8839
憂	-14.8839
涼	-14.8839
‮	-14.8839
╜	-14.8839
•	-14.8839
て	-14.8839
同	-14.8839
£	-14.884
、	-14.884
え	-14.884
が	-14.884
げ	-14.884
そ	-14.884
れ	-14.884
わ	-14.884
層	-14.884
広	-14.884
悪	-14.884
通	-14.884
́	-14.8841
り	-14.8841
